{"version":"1.0","truncation":null,"padding":null,"added_tokens":[{"id":0,"special":true,"content":"<s>","single_word":false,"lstrip":false,"rstrip":false,"normalized":false},{"id":1,"special":true,"content":"<pad>","single_word":false,"lstrip":false,"rstrip":false,"normalized":false},{"id":2,"special":true,"content":"</s>","single_word":false,"lstrip":false,"rstrip":false,"normalized":false},{"id":3,"special":true,"content":"<unk>","single_word":false,"lstrip":false,"rstrip":false,"normalized":false},{"id":4,"special":true,"content":"<mask>","single_word":false,"lstrip":true,"rstrip":false,"normalized":false}],"normalizer":null,"pre_tokenizer":{"type":"ByteLevel","add_prefix_space":false,"trim_offsets":true},"post_processor":{"type":"ByteLevel","add_prefix_space":true,"trim_offsets":false},"decoder":{"type":"ByteLevel","add_prefix_space":true,"trim_offsets":true},"model":{"type":"BPE","dropout":null,"unk_token":null,"continuing_subword_prefix":null,"end_of_word_suffix":null,"fuse_unk":false,"vocab":{"<s>":0,"<pad>":1,"</s>":2,"<unk>":3,"<mask>":4,"!":5,"\"":6,"#":7,"$":8,"%":9,"&":10,"'":11,"(":12,")":13,"*":14,"+":15,",":16,"-":17,".":18,"/":19,"0":20,"1":21,"2":22,"3":23,"4":24,"5":25,"6":26,"7":27,"8":28,"9":29,":":30,";":31,"<":32,"=":33,">":34,"?":35,"@":36,"A":37,"B":38,"C":39,"D":40,"E":41,"F":42,"G":43,"H":44,"I":45,"J":46,"K":47,"L":48,"M":49,"N":50,"O":51,"P":52,"Q":53,"R":54,"S":55,"T":56,"U":57,"V":58,"W":59,"X":60,"Y":61,"Z":62,"[":63,"\\":64,"]":65,"^":66,"_":67,"`":68,"a":69,"b":70,"c":71,"d":72,"e":73,"f":74,"g":75,"h":76,"i":77,"j":78,"k":79,"l":80,"m":81,"n":82,"o":83,"p":84,"q":85,"r":86,"s":87,"t":88,"u":89,"v":90,"w":91,"x":92,"y":93,"z":94,"{":95,"|":96,"}":97,"~":98,"¡":99,"¢":100,"£":101,"¤":102,"¥":103,"¦":104,"§":105,"¨":106,"©":107,"ª":108,"«":109,"¬":110,"®":111,"¯":112,"°":113,"±":114,"²":115,"³":116,"´":117,"µ":118,"¶":119,"·":120,"¸":121,"¹":122,"º":123,"»":124,"¼":125,"½":126,"¾":127,"¿":128,"À":129,"Á":130,"Â":131,"Ã":132,"Ä":133,"Å":134,"Æ":135,"Ç":136,"È":137,"É":138,"Ê":139,"Ë":140,"Ì":141,"Í":142,"Î":143,"Ï":144,"Ð":145,"Ñ":146,"Ò":147,"Ó":148,"Ô":149,"Õ":150,"Ö":151,"×":152,"Ø":153,"Ù":154,"Ú":155,"Û":156,"Ü":157,"Ý":158,"Þ":159,"ß":160,"à":161,"á":162,"â":163,"ã":164,"ä":165,"å":166,"æ":167,"ç":168,"è":169,"é":170,"ê":171,"ë":172,"ì":173,"í":174,"î":175,"ï":176,"ð":177,"ñ":178,"ò":179,"ó":180,"ô":181,"õ":182,"ö":183,"÷":184,"ø":185,"ù":186,"ú":187,"û":188,"ü":189,"ý":190,"þ":191,"ÿ":192,"Ā":193,"ā":194,"Ă":195,"ă":196,"Ą":197,"ą":198,"Ć":199,"ć":200,"Ĉ":201,"ĉ":202,"Ċ":203,"ċ":204,"Č":205,"č":206,"Ď":207,"ď":208,"Đ":209,"đ":210,"Ē":211,"ē":212,"Ĕ":213,"ĕ":214,"Ė":215,"ė":216,"Ę":217,"ę":218,"Ě":219,"ě":220,"Ĝ":221,"ĝ":222,"Ğ":223,"ğ":224,"Ġ":225,"ġ":226,"Ģ":227,"ģ":228,"Ĥ":229,"ĥ":230,"Ħ":231,"ħ":232,"Ĩ":233,"ĩ":234,"Ī":235,"ī":236,"Ĭ":237,"ĭ":238,"Į":239,"į":240,"İ":241,"ı":242,"Ĳ":243,"ĳ":244,"Ĵ":245,"ĵ":246,"Ķ":247,"ķ":248,"ĸ":249,"Ĺ":250,"ĺ":251,"Ļ":252,"ļ":253,"Ľ":254,"ľ":255,"Ŀ":256,"ŀ":257,"Ł":258,"ł":259,"Ń":260,"áĪ":261,"áĬ":262,"áī":263,"áĭ":264,"ĠáĬ":265,"áĮ":266,"ĠáĪ":267,"áī¥":268,"áĬķ":269,"Ġáĭ":270,"áį":271,"áīµ":272,"áĪĿ":273,"Ġáį":274,"Ġáį¢":275,"áĪŃ":276,"ĠáĬ£":277,"áĪį":278,"áĭŃ":279,"ĠáĬ¥":280,"áĬ¥":281,"ĠáĭĿ":282,"áī°":283,"áī£":284,"ĠáĪĺ":285,"áī³":286,"áĪĪ":287,"áĬĲ":288,"áĪµ":289,"áĪ°":290,"ĠáĬ¥áĭ":291,"áĬ£":292,"Ġáī¥":293,"áīł":294,"áĪ«":295,"áĪķ":296,"áĮĪ":297,"áī²":298,"áĬĵ":299,"ĠáĪĿ":300,"áĭ«":301,"áĪĭ":302,"ĠáĬķ":303,"áĪ¨":304,"áĮį":305,"áĭµ":306,"ĠáĬ£áī¥":307,"áĪĺ":308,"áĭĬ":309,"ĠáĬŃ":310,"áĪĽ":311,"áĭķ":312,"áįį":313,"áĮ½":314,"Ġáĭĺ":315,"áĪħ":316,"ĠáĬ¨":317,"Ġáī":318,"áī³áīµ":319,"áĭį":320,"áĭĿ":321,"áĪī":322,"áĬ¥áĪ°":323,"áĪĵ":324,"áĬķáĬ¥áĪ°":325,"ĠáĮ":326,"áĬ½":327,"ĠáĬ¥áĭ©":328,"áĪª":329,"áĪİ":330,"ĠáĪĺáĬķáĬ¥áĪ°":331,"áĭ°":332,"Ġáī°":333,"áĭ³":334,"áīµáĬķ":335,"áĬ«":336,"ĠáĬĵ":337,"ĠáĪµ":338,"áīķ":339,"áĭĪ":340,"áī¶":341,"áĭĵ":342,"áĬ¨":343,"áĬŃ":344,"Ġáĭĵ":345,"ĠáĪĥ":346,"áĮł":347,"áĮ¥":348,"ĠáĪĵ":349,"Ġáĭµ":350,"Ġáīµ":351,"áĪĬ":352,"áĮ»":353,"áĬ£áī¥":354,"ĠáĬ¨áĪĿ":355,"áįĪ":356,"áĪĥ":357,"áĮĭ":358,"áĭ«áīµ":359,"áĭ¨":360,"áĪ³":361,"Ġáĭķ":362,"ĠáĬĵáĭŃ":363,"áĪ®":364,"ĠáĬ«":365,"ĠáĭŃ":366,"áĭİ":367,"áĭļ":368,"ĠáĪĥáĮĪ":369,"áī¢":370,"áĬĲáīµ":371,"ĠáĭĿáī°":372,"Ġáī¥áĪĿ":373,"áī¶áĪĿ":374,"áī±":375,"ĠáĬ¥áĭļ":376,"Ġáī£":377,"áĪ©":378,"áĭĺ":379,"ĠáĪĺáĬķáĬ¥áĪ°áĭ«áīµ":380,"ĠáĬĲ":381,"áĬĳ":382,"ĠáĭµáĪĽ":383,"ĠáĬķáĪĿ":384,"ĠáĪĽ":385,"áĪħáĪŃ":386,"áĭ²":387,"áĪ«áĭĬ":388,"ĠáĭĪ":389,"áī¡":390,"ĠáĪķ":391,"áĬ¡":392,"ĠáĬ«áī¥":393,"áĬ¸":394,"áĭĭ":395,"Ġáį£":396,"áĮ¸":397,"áĪ«áĪķ":398,"ĠáĪĺáĬķáĬ¥áĪ°áĭŃ":399,"áī£áī¥":400,"ĠáīĢ":401,"áĪĳ":402,"áĭĽ":403,"Ġáīħ":404,"ĠáĬ¥áī²":405,"áīłáĪŃ":406,"áĬĴ":407,"áīĥ":408,"áĬ¢":409,"áĭĳ":410,"Ġáĭį":411,"áĪļ":412,"ĠáĪħ":413,"áĭ®":414,"ĠáĮ¸":415,"áĪĴ":416,"áīĲ":417,"áĭ±":418,"ĠáĪį":419,"Ġáįį":420,"ĠáĮį":421,"áĭ©":422,"áĪĿáĪħáĪŃ":423,"áī³áĭĬ":424,"ĠáĭĺáĭŃ":425,"áī¥áĪ¨":426,"áĬ»":427,"ĠáĪ°":428,"Ġáĭ°":429,"ĠáĪĿáĪµ":430,"ĠáĬ£áĪİ":431,"áĭįáĬķ":432,"įáĬķ":433,"áĬ¾":434,"áī¥áĬ£":435,"ĠáĬ¥áĭįáĬķ":436,"áī¦":437,"áīĢ":438,"ĠáĪµáĪ«áĪķ":439,"ĠáīµáĪĿáĪħáĪŃ":440,"ĠáĮ½":441,"áĪŀ":442,"ĠáĬ®":443,"ĠáĬ¥áĬķ":444,"áĬ¦":445,"áĮłáī£":446,"ģáĮłáī£":447,"áĭķáī£":448,"ĠáĮĪ":449,"áī£áĪŃ":450,"áĪĭáīµ":451,"áĪ²":452,"áĪ°áĪ¨":453,"Ġáīł":454,"áĬ½áĬ¥":455,"áĬ©":456,"ĠáĬ¤":457,"áĪįáĬ¥":458,"ĠáĭĺáĪĪ":459,"ĠáĪĥáĮĪáĪŃ":460,"áĭĥ":461,"áĭĻ":462,"áĮ¹":463,"áī¥áĪŃ":464,"áī¥áĪį":465,"ĠáĬ£áįį":466,"áĮĪáĪį":467,"Ġáīħáī¥áĬ£":468,"áĪ«áīµ":469,"áįĭ":470,"áĪĪáīµ":471,"ĠáīµáĪĿáĪħáĪŃáī²":472,"áĪĲ":473,"áĬ¹":474,"áĭī":475,"ĠáĬ©":476,"áĪŃáīµ":477,"Ġáī£áĪħ":478,"ĠáĬ£áĭŃ":479,"áīłáĪ¨":480,"áĪĿáĬķ":481,"áĪŃáĬ¨":482,"ĠáĬ¥áĬĵ":483,"ĠáĮ¥":484,"ĠáĪĥáĮĪáĪ«áĭĬ":485,"ĠáĪĽáĪķ":486,"áĪĻ":487,"ĠáĭĿáĬĲ":488,"áĪªáīĥ":489,"Ġ\"":490,"áĪ½":491,"ĠáĬ¥áĪĿ":492,"áī£áīµ":493,"ĠáĭĺáĪİ":494,"ĠáīģáĮłáī£":495,"ĠáĭĵáĪĪ":496,"áĬ®":497,"áĪĵáīµ":498,"ĠáĬ£áįįáĪªáīĥ":499,"áĭ«áĬķ":500,"ĠáĬķáī£áī¥":501,"ĠáĬĵáī¥":502,"ĠáĬ¤áĪŃáīµ":503,"áĮī":504,"áĭŃáĬĳ":505,"ĠáĪĺáĪ°áĪ¨":506,"áĪ°áī¥":507,"áĮįáī£áĪŃ":508,"áĪİáĪĿ":509,"áĭĵáīµ":510,"áī¥áĪ¨áī°":511,"áīĤ":512,"ĠáĬ£áĪĪ":513,"áī³áīµáĬķ":514,"áĭĳáĪį":515,"áĪ±":516,"áĮº":517,"áĮİ":518,"áįī":519,"áĪįáĮł":520,"ĠáĪĵáĭ°":521,"áĭĺáĭŃ":522,"ĠáĬ¤áĪŃáīµáĪ«":523,"áī¥áĭ¨":524,"áįĬ":525,"áĪįáĬķ":526,"áīłáī¥":527,"ĠáĪĿáĭĥ":528,"ĠáĪķáī¥áĪ¨áī°":529,"ĠáĭĵáĪĪáĪĿ":530,"ĭáĬķ":531,"áī¤":532,"áĭ¶":533,"áĬ¥áĭļ":534,"áĪ¨áĬ½":535,"áĬ¾áĬĲ":536,"áīĳ":537,"ĠáĪŃ":538,"áĬ¥áī²":539,"Ġáī¥áĭĿ":540,"áĪĭáĪĪ":541,"áįįáī²":542,"ĠáĪ¨":543,"áī£áī¢":544,"áĬĲáīµáĬķ":545,"áĬ«áī¥":546,"áĭĪáīµ":547,"áĮ»áĪķ":548,"áįĪáĪĭáĪĪ":549,"áīħ":550,"áĪŃáĪķ":551,"áĬĵáĬķ":552,"ĠáĪĺáĬķáĬ¥áĪ°áĭ«":553,"áĬ¦áĪĿ":554,"áĬ½áĬ¥áĪį":555,"áĬ®áĬĲ":556,"áĪ»":557,"áĬ³":558,"áĮĥ":559,"ĠáĪĪ":560,"ĠáĭĿáīł":561,"ĠáĪĺáĮ½":562,"áĭķáĪĬ":563,"Ġáĭķáī¥áĭ¨":564,"ĠáĭĺáĪĪáĭİ":565,"áĬĸ":566,"ĠáĬ¥áī¶áĪĿ":567,"áī£áĪħ":568,"áĪ«áĭŃ":569,"áĪĭáĪĽ":570,"áĭµáĪį":571,"áĪĺáĬķáĬ¥áĪ°":572,"ĠáĪµáĬĲ":573,"ĠáīµáĬ«":574,"ĠáĪĺáĬķáĬ¥áĪ°áĭ«áīµáĬķ":575,"áĬª":576,"áĭŀ":577,"áĮ£":578,"áĪĿáĪµ":579,"ĠáįĪ":580,"ĠáĬ£áĬķ":581,"ĠáĬ¥áĭĭáĬķ":582,"áĭµáĪ«":583,"ĠáĬ¨áĬ£":584,"áĭįáĭ«áĬķ":585,"áĪ®áĪĿ":586,"áĬ¸áĭįáĬķ":587,"ĠáĪħáĭĿ":588,"ĠáĬ¥áĬķáī°":589,"ĠáĪĽáĪķáīłáĪŃ":590,"Ġ1":591,"áĬ¤":592,"áĪŃáĮį":593,"áĬ¥áĪĿ":594,"áĬ¥áĪµ":595,"ĠáĭĿáĪĺ":596,"ĠáĭĿáĪĵ":597,"Ġáī¥áĭĻ":598,"ĠáĪĿáĪħ":599,"ĠáĪµáĪĪ":600,"áĭ¨áĬĲ":601,"ĠáĭĪáĭŃ":602,"ĠáĪįáĭĳáĪį":603,"ĠáĪķáī¥áĪ¨áī°áĪ°áī¥":604,"Ġáĭķáī¥áĭ¨áīµ":605,"ĠáĬ¸":606,"ĠáĪ½":607,"ĠáĬ£áĮĪ":608,"ĠáĬ£áĬ«":609,"áĪįáī¦":610,"ĠáĪĿáĭķáī£":611,"áĪĵáĭ°":612,"ĠáĮ»":613,"áĬ¨áĪĿ":614,"áĪĥáĪį":615,"ĠáįįáĪįáĮł":616,"ĠáĬ®áĭŃáĬĳ":617,"ĠáīģáĮłáī£áĭĬ":618,"áĭµáĪ«áī¤":619,"Ġ2":620,"áĭĴ":621,"ĠáĪļ":622,"áĬķáĭ«":623,"Ġáĭ¨":624,"ĠáĭĿáī¥áĪį":625,"ĠáĭĿáĪŃáĬ¨":626,"áĪĪáĬķ":627,"áĬĲáī³áīµ":628,"ĠáĮĭ":629,"áīķáĪª":630,"ĠáĭĵáĪĺ":631,"ĠáĭķáĪĭáĪĽ":632,"ĠáĪĥáĮĪáĪ«áīµ":633,"ĠáĭĿáī°áįĪáĪĭáĪĪ":634,"Ġáī£áĪħáĪŃ":635,"áīłáĪŃáĬŃ":636,"áīłáī¥áī²":637,"Ġáī³":638,"áĪ¶":639,"áĬł":640,"ĠáĬ¢":641,"áĮ¢":642,"áĬķáĭ²":643,"áĪŃáĪĵ":644,"áĪįáĬŃ":645,"áĭŃáī²":646,"ĠáĪĺáĬķ":647,"ĠáĪĺáĪµ":648,"áĬĲáī±":649,"ĠáĬ¥áĭ®":650,"ĠáĬ¥áĭĽ":651,"áĬ£áĪŃ":652,"Ġáī¥áīĲ":653,"áĬĵáĭŃ":654,"áĬĵáĮ½":655,"áĪĭáĭŃ":656,"ĠáĬ¨áī£áī¢":657,"áĭ³áĬ¥":658,"ĠáĬĲáī²":659,"ĠáĮ»áĭķ":660,"áĪĤ":661,"áīĽ":662,"ĠáĪŀ":663,"áī¥áĪī":664,"áĪ°áĬķ":665,"áīłáĭļ":666,"áĮĪáĭ²":667,"áĪ¨áĮĥ":668,"áĪĽáīµ":669,"áĪªáĬ½":670,"Ġáī°áĪĺ":671,"ĠáĪµáĭµáĪ«áī¤":672,"Ġáĭķáĭµ":673,"áĮĪáĪįáĮį":674,"ĠáĬ¸áĬ£":675,"ĠáĪĿáĭķáī£áĪĪ":676,"ĠáĮĭáĭĿ":677,"ĠáĬ¥áĭ®áĪĿ":678,"áĪįáĭĳ":679,"áĭŃáĭµ":680,"áĬĲáĭļ":681,"áĬ£áĪį":682,"Ġáī¥áīķ":683,"áīłáĬ£áĪŃ":684,"ĠáĪĿáīµ":685,"ĠáĪĿáĪĿ":686,"áĭ«áĭĬ":687,"áĭ«áĭ³":688,"ĠáĬŃáīµ":689,"ĠáĬŃáĪħ":690,"ĠáĮī":691,"áĬ½áĬķáĭ«":692,"ĠáĮ¥áĪ«áĭŃ":693,"ĠáĬ¥áĪĿáīłáĬ£áĪŃ":694,"áĮ»áĪķáįįáī²":695,"áīłáĪŃáĬŃáī¶":696,"áĮĬ":697,"áī¥áĬķ":698,"áĪĿáĬ½áĬķáĭ«":699,"áĪŃáĬķ":700,"áĪŃáī²":701,"áĪŃáĪĴ":702,"ĠáĬ£áĪįáī¦":703,"áĪįáĭĭ":704,"ĠáĭĿáĪĿ":705,"ĠáĭĿáĭĪ":706,"áī°áĪŃ":707,"áī£áĭķ":708,"áī³áī¶áĪĿ":709,"ĠáĪĿáĭķ":710,"ĠáĬŃáįį":711,"ĠáĬŃáĬ¢":712,"áīķáĪĪáīµ":713,"ĠáīµáĪķ":714,"áįĪáĮ¥":715,"ĠáĭķáĪĽ":716,"ĠáĬ©áĬĲáī³áīµ":717,"Ġáī£áĪħáĪĬ":718,"ĠáĪĺáĪ°áĪ¨áīµ":719,"áĬĸáĪĿ":720,"áĬ¥áĪĿáĪ®":721,"áĪĿáĬ½áĬķáĭ«áī±":722,"ŀáī£":723,"áĪĮ":724,"áĭª":725,"Ġáĭŀáī£":726,"ĠáĬ£áĪµ":727,"ĠáĬ£áīłáĪŃáĬŃáī¶":728,"ĠáĭĿáĬ¸":729,"ĠáĪĺáĭµ":730,"ĠáĪĺáĮ»áĪķáįįáī²":731,"áĪĭáĭĬ":732,"áĪĭáĭį":733,"ĠáĬķáĬ½":734,"ĠáĬķáĮ¥":735,"áĪ¨áīµ":736,"áĪĺáĬķ":737,"áĪĽáĭĬ":738,"Ġáī°áĭĪ":739,"áĭİáĪĿ":740,"ĠáīĢáĮ»":741,"ĠáĪ¨áīĽ":742,"ĠáĬ£áĬķáīłáī¥áī²":743,"ĠáĪħáĭĿáī¢":744,"ĠáĪµáĪĪáĭĿ":745,"ĠáĪ¨áīĽáĪĴ":746,"áīĵ":747,"ĠáĪĤ":748,"áĪŃáĬ¥":749,"ĠáĬ¥áīµ":750,"ĠáĭĿáĪ°":751,"ĠáĪĺáĭ°":752,"ĠáĪĺáĭ³":753,"áīłáĪ«áĭĬ":754,"áĮĪáī¥":755,"ĠáĬŃáĪĪ":756,"áĪĽáĭķ":757,"áįįáĬķ":758,"ĠáĬ¨áĭŃ":759,"áĪīáĬķ":760,"áĬ½áī²":761,"áĬŃáĪį":762,"Ġáĭĵáīķ":763,"Ġáĭĵáī¢":764,"áĮ»áĬ¢":765,"ĠáĬ¨áĪĿáĭĿ":766,"ĠáĪĽáĪĪáīµ":767,"áĬ¡áĬķ":768,"ĠáīĢáĭ³":769,"áĪĳáĪµ":770,"áĭĽáĭķáī£":771,"ĠáĮįáĬķ":772,"ĠáĭĺáĭŃáĬ®áĬĲ":773,"Ġáĭ°áĪ¨áĮĥ":774,"áĮĪáĪįáĮ½":775,"ĠáĪĺáĪ°áĪ¨áī³áĭĬ":776,"ĠáĪĿáĭĥáĬĳ":777,"áī£áĪħáĪĬ":778,"ĠáĪĿáĪħáĬĵáĮ½":779,"Ġ20":780,"áĮĪáĪįáĮįáĪİ":781,"ĠáĬ£áĪįáī¦áĬĲáīµ":782,"ĠáĬķáĮ¥áįĪ":783,"áĪ¬":784,"áĬº":785,"áĮĢ":786,"áīµáĬĵ":787,"áĭŃáĬķ":788,"áĭŃáĪ©":789,"áĬ¥áĬķ":790,"ĠáĭĿáĭµ":791,"ĠáĭĿáĮ¸":792,"ĠáĭĿáĬ½áĬ¥áĪį":793,"áī°áĬ£":794,"áī°áĭĪ":795,"ĠáĪĺáĮĪáĭ²":796,"ĠáĪĿáĬķ":797,"áĪĭáĬ¥":798,"áĪĭáįį":799,"áĪ¨áĮĭ":800,"áĮįáĪĪ":801,"áĪĺáĮ½":802,"ĠáĬŃáī¥":803,"áĪĽáĪķ":804,"Ġáī¦":805,"ĠáĮł":806,"ĠáĪµáĪŃ":807,"áĮ¥áīł":808,"ĠáĬ«áĪįáĬ¥":809,"Ġáī¥áĪĿáĭĥ":810,"ĠáĬĲáĭļ":811,"ĠáīĢáĬķáĭ²":812,"ĠáĪįáĪĿ":813,"áī¥áĪŃáī³áīµ":814,"Ġáī¥áĭĻáĪĵáīµ":815,"Ġáī³áĪªáĬ½":816,"Ķáīµ":817,"áīģáĮłáī£":818,"áĮ¡":819,"Ġáĭĭ":820,"áīµáī³":821,"áīµáĪĴ":822,"áĪŃáĭµ":823,"ĠáĬ£áĭĿ":824,"ĠáĬ£áĮĪáĪįáĮįáĪİ":825,"áĪįáĬ¦":826,"áĭŃáĬĲáīµ":827,"áī£áĪį":828,"Ġáī¥áĭĺáĭŃ":829,"Ġáī¥áĭĽáĭķáī£":830,"áĪķáĬķ":831,"áĮįáī£":832,"áĪĺáĪŃ":833,"áĪĽáĬķ":834,"áįįáĪĭáĭŃ":835,"ĠáĬ¨áī°":836,"Ġáīģ":837,"áĭ°áĪ«":838,"Ġáī°áĪ«":839,"áĭĵáĪĪ":840,"áĬ¨áĪį":841,"ĠáĪĥáĭŃ":842,"ĠáĭµáĪķ":843,"áĪĥáĮĪ":844,"ĠáĬķáĪĿáĮįáī£áĪŃ":845,"ĠáĮ¸áĮĪ":846,"ĠáĪ°áī¥":847,"áĬ¾áĬĳ":848,"ĠáĮ½áĪįáĭĭ":849,"ĠáĪĺáĮ½áĪĵ":850,"áĪĺáĬķáĬ¥áĪ°áĭŃ":851,"áĪĺáĬķáĬ¥áĪ°áĭ«áīµ":852,"ĠáįįáĪįáĮłáīµ":853,"ĠáĭĵáĪĺáī³áīµ":854,"ĠáĮ»áĭķáĪª":855,"ĠáĪĺáĭµáĪ¨áĬ½":856,"áĪĶáīµ":857,"áĮĵ":858,"áĮŃ":859,"áĬķáĮ¸":860,"áĬķáī£áī¥":861,"áĬķáīĢ":862,"áĪŃáĬ£":863,"ĠáĬ£áĪĺ":864,"áĪįáĭİ":865,"áĬ¥áĬ¨áĪį":866,"ĠáĭĿáĪµ":867,"ĠáĭĿáĪķ":868,"ĠáĭĿáĮį":869,"ĠáĭĿáĭ«áĭ³":870,"ĠáĪĺáĮł":871,"ĠáĪĺáĪįáĬ¥":872,"áĬĲáī¶áĪĿ":873,"áĪµáĬĲ":874,"áĪµáī²":875,"Ġáī¥áĮį":876,"Ġáī¥áĪĵ":877,"áīłáĭ¨áĬĲ":878,"áĮĪáĪŃ":879,"áĬĵáīµ":880,"áĭ«áĪį":881,"áĭ«áī°":882,"áĮįáĬķ":883,"áĮįáĮ½":884,"ĠáĬ£áī¥áĭ«áī°":885,"ĠáĬŃáĬķ":886,"ĠáĬŃáĬ¸áĭįáĬķ":887,"áĭķáĪŃ":888,"áĮ½áī¢":889,"áĮ½áĬĲáīµ":890,"Ġáī´":891,"áĬŃáī°áĪŃ":892,"ĠáĬ¨áĪĿáĬ¡":893,"ĠáĭŃáĬ¹":894,"Ġáī£áĭŃ":895,"Ġáī£áĭ®":896,"ĠáĪħáĭŃ":897,"ĠáĮ¸áĭĵáīµ":898,"ĠáįįáīķáĪª":899,"Ġáĭ°áĪ«":900,"áī¦áĪĿ":901,"ĠáĮ½áĪĳ":902,"Ġáīłáĭ¨áĬĲ":903,"ĠáĬ£áĪĪáĭİ":904,"ĠáīµáĬ«áĪĭáīµ":905,"áĭŀáĪĿ":906,"ĠáĭĿáĪĵáĪĪ":907,"ĠáĪ½áīķáĪĪáīµ":908,"áĪ¶áĪĿ":909,"áĪįáĭĳáĬķ":910,"áīģáĮłáī£áĭĬ":911,"áĪįáĬ¦áīµ":912,"ĠáĪĥáĭŃáĪĪ":913,"áĪĥáĮĪáĪ«áĭĬ":914,"Ġ7":915,"ĠáĬª":916,"ĠáĬĶ":917,"áĮ¾":918,"ĠáĪĴ":919,"áĬķáĬķ":920,"áĪĿáīµ":921,"áĪŃáĮĭ":922,"ĠáĬ£áĬ¥áĪĿáĪ®":923,"ĠáĬ¥áĬ³":924,"áĬ¥áĪĪ":925,"áĬ¥áī³áĭĬ":926,"ĠáĭĿáĬ£":927,"ĠáĭĿáĭį":928,"áī°áĬĲ":929,"áī£áĭĬ":930,"áī£áīµáĬķ":931,"áī£áĪĭáīµ":932,"ĠáĪĺáĪ³":933,"áĪµáįĭ":934,"áĪ°áĪŃ":935,"ĠáĬ¥áĭ¨":936,"Ġáī¥áĪī":937,"áīłáĪī":938,"áĬĵáĭĬ":939,"áĬĵáī³áīµ":940,"ĠáĪĿáĭµ":941,"ĠáĪĿáĬ½":942,"áĭ«áī³áīµ":943,"ĠáĬķáĭĿ":944,"áĮįáĮĭ":945,"áĪĺáī°":946,"áĪĺáĪµ":947,"áĭķáĬķ":948,"ĠáĬĵáĮ½áĬĲáīµ":949,"áĬ¨áĬ£áĪį":950,"áĪĥáĪ®":951,"áĮĭáī³áīµ":952,"áĪ³áī¥":953,"áī±áĬķ":954,"Ġáī£áĭķ":955,"ĠáĪĽáĬ¥áĬ¨áĪį":956,"ĠáĭįáĪĳáĪµ":957,"áĭ®áĪĿ":958,"ĠáĮ¸áĬĴ":959,"ĠáĪįáĭķáĪĬ":960,"áĬ½áĬ¥áĪī":961,"ĠáĬ©áĪī":962,"ĠáĬ£áĭŃáĬ®áĬĲ":963,"ĠáĭĿáĬĲáīł":964,"ĠáĭĿáĬĲáīłáĪ¨":965,"ĠáĪŃáĬ¥":966,"ĠáĪĪáĭŃáī²":967,"áĪŃáĮįáĮĭ":968,"ĠáĬ£áĮĪáĭ³":969,"ĠáĭĿáī°áįĪáĪĭáĪĪáĭ©":970,"áĭ³áĬ¥áī³":971,"Ġáī¥áīķáĭĵáīµ":972,"ĠáĪµáĪĪáĭĿáĬ¾áĬĲ":973,"ĠáĪĺáĭ°áī¥":974,"ĠáĬķáĮ¥áįĪáī³áīµ":975,"ĠáĪĺáĪįáĬ¥áĬ½áī²":976,"ĠáĬ£áĭŃáĬ®áĬĲáĬķ":977,"áĬĽ":978,"áīĭ":979,"áīĴ":980,"áĮ¦":981,"áī¥áĭĿ":982,"áĬķáĭ±":983,"áĬķáĪĲ":984,"Ġáĭľ":985,"áĪŃáĮī":986,"áĪŃáĪ»":987,"áĪįáī°":988,"áĭŃáĭ±":989,"ĠáĭĿáĬ¾áĬĲ":990,"áī£áĪ«áĭĬ":991,"ĠáĪĺáĬĲ":992,"ĠáĪĺáĪª":993,"ĠáĪĺáĪĭáĬ¥":994,"áī³áĪķ":995,"áĪĪáĮ¥":996,"áĪĪáĭī":997,"áĪµáīµ":998,"áĪµáįį":999,"áĪµáĪ«áĪķ":1000,"Ġáī¥áĪĺ":1001,"Ġáī¥áīĳ":1002,"áīłáĭ¨":1003,"áĮĪáī¥áĪ¨":1004,"ĠáĪĿáįį":1005,"ĠáĪĿáĮįáī£áĪŃ":1006,"ĠáĬķáīķ":1007,"áĪ¨áī¥":1008,"áĭµáĪĬ":1009,"áĪĽáĪĺáī°":1010,"Ġáīĥ":1011,"ĠáīĪ":1012,"áĭįáĪĲ":1013,"áĭĿáī¶":1014,"ĠáĮĢ":1015,"ĠáĮİ":1016,"áĬ«áĭĬ":1017,"áĬ«áĭ¨":1018,"áĭĵáĪį":1019,"áĬ¨áĪĭ":1020,"áĮ¥áīĢ":1021,"ĠáĪĵáīł":1022,"áĪ³áĬĴ":1023,"ĠáĭŃáĪŃáĬ¨":1024,"Ġáī¥áĪĿáīµ":1025,"ĠáĬĲáī¶áĪĿ":1026,"ĠáĬķáĪĿáīµ":1027,"ĠáĭĪáĪ³áĬĴ":1028,"áĬ»áĬ½":1029,"ĠáĭĿáĬĲáĭįáĪĲ":1030,"áĪ¨áĬ½áī¡":1031,"ĠáĪĪáĭį":1032,"ĠáĭĿáĪĺáĮ¹":1033,"ĠáĬ£áĮĪáī£áī¥":1034,"ĠáĭĿáī°áįĪáĪĭáĪĪáĭ¨":1035,"ĠáĪµáĭµáĪ«áī¤áīµ":1036,"ĠáĪĿáĭķáīĥ":1037,"ĠáīĢáĮ»áĪĬ":1038,"ĠáĪĺáĭ³áĭŃ":1039,"ĠáĭĵáīķáĪļ":1040,"Ġáī¦áī³":1041,"ĠáĬ£áĮĪáĪįáĮįáĪİáīµ":1042,"ĠáĭŃáĬ¹áĬķ":1043,"Ġáī£áĭŃáī³":1044,"áĪŃáĮįáĮĭáĮ½":1045,"áĪĽáĪĺáī°áĬ¤":1046,"Ġ(":1047,"áĪ¸":1048,"áĪľ":1049,"áī¥áĪĺ":1050,"áī¥áĭĻ":1051,"áī¥áī£áĭķ":1052,"áĬķáī²":1053,"áĬķáĭį":1054,"áĬķáĮ»":1055,"áįİ":1056,"ĠáĬ£áĪŃ":1057,"áĪįáĬ£":1058,"áĪįáĬĵ":1059,"áĪįáĬ«":1060,"áĪįáĬ¨":1061,"áĬ¥áī¶áĪĿ":1062,"ĠáĭĿáĪĪ":1063,"ĠáĭĿáĪħ":1064,"ĠáĭĿáĭĵ":1065,"ĠáĭĿáįĪ":1066,"áī°áĬ«":1067,"ĠáĪĺáĪĿ":1068,"ĠáĪĺáĪ°":1069,"áĪµáī°":1070,"áĪµáĬ³":1071,"ĠáĬ¥áĭ«":1072,"Ġáī¥áĪį":1073,"áĪķáĭ°áĪ«":1074,"ĠáĪĿáĬŃ":1075,"áĪĭáĮĪ":1076,"áĪĭáīµáĬķ":1077,"áĮįáĭĵ":1078,"áĭµáĬķ":1079,"áĭµáĪķ":1080,"áĭµáĪļ":1081,"áĪĺáĭŃ":1082,"ĠáĬŃáĬ¸":1083,"ĠáĬŃáĪįáī°":1084,"áĪĽáĭŃ":1085,"áĮ½áĪĳ":1086,"áĮ½áĬ¢":1087,"Ġáĭĺáī°":1088,"Ġáĭĺáĭ¨":1089,"Ġáī°áĮĪ":1090,"áĭ³áĭĬ":1091,"áĬ«áĬķ":1092,"ĠáĪµáĪįáĮł":1093,"áĭĵáĭŃ":1094,"áĬŃáīµ":1095,"áĬŃáĬ¥":1096,"Ġáĭĵáĭį":1097,"ĠáĭĵáĭŃáĬĲáīµ":1098,"áĮłáīķ":1099,"ĠáĪĵáīĤ":1100,"áĪĥáī¥":1101,"áĪ³áīµ":1102,"áĪ³áī°":1103,"ĠáĭĿáī°áĭĵ":1104,"áī¡áĬ¥":1105,"áī£áī¥áĪ®":1106,"áĭĽáĬ¥":1107,"ĠáĭįáĪį":1108,"Ġáĭįáĭµ":1109,"ĠáĮįáĬĵ":1110,"ĠáĪ°áįĬ":1111,"ĠáĬ®áĭŃ":1112,"ĠáĬ®áĪĽáĭĬ":1113,"áĬ©áĪī":1114,"áįĭáīµ":1115,"ĠáīµáĪĿáĪħáĪŃáī²áĬķ":1116,"ĠáĬ¥áĬĵáī°":1117,"ĠáĪĽáĪķáīłáĪ«áĭĬ":1118,"ĠáĪĿáĭĥáĬķ":1119,"áĭ¶áĪĿ":1120,"ĠáīµáĬ«áĪį":1121,"áĬ¥áĪµáĪ³":1122,"ĠáĬ£áĬ«áĪĭáīµ":1123,"ĠáįįáĪįáĮłáīµáĬķ":1124,"ĠáĪļáĬ¥áī³áĭĬ":1125,"Ġáī£áĪħáĪŃáĭ«áīµ":1126,"áĪŃáĪĵáĪī":1127,"ĠáĪĺáĪµáĪŃáĪķ":1128,"ĠáĭķáĭµáĪĺ":1129,"ĠáĬŃáĬ¢áĪĭ":1130,"ĠáĭķáĪĽáĪĿ":1131,"ĠáĪ¨áīĽáĪĴáī³áīµ":1132,"Ġ201":1133,"áĪ¬áī³":1134,"ĠáĭĿáĭµáĪĪ":1135,"ĠáĭµáĪķáĪª":1136,"ĠáĪĺáĮłáĬķ":1137,"áĮ½áī¢áīµ":1138,"Ġáī¥áĪīáĮ½":1139,"ĠáĮ¸áĬĴáĪĳ":1140,"ĠáĪĺáĬĲáī£áī¥áĪ®":1141,"ĠáīĪáĪįáĭĳáĬķ":1142,"ĠáĪĵáīłáĪ¬áī³":1143,"ĠáĪĪáĭįáĮ¢":1144,"áĪµáĬ³áĪµ":1145,"ĬáĬĲ":1146,"ŀáĪĿ":1147,"áĬ°":1148,"áĭľ":1149,"ĠáĬ¹":1150,"ĠáĪ¸":1151,"ĠáĪĭ":1152,"áī¥áĮ»":1153,"Ġáĭ³":1154,"ĠáĭĽ":1155,"Ġáį¡":1156,"Ġáįĸ":1157,"áĪŃáĬł":1158,"ĠáĬ£áī°":1159,"ĠáĬ£áĪ°":1160,"ĠáĬ£áī¶":1161,"ĠáĬ£áĬ¨":1162,"ĠáĬ£áĮĭ":1163,"ĠáĬ£áī£áĪĭáīµ":1164,"ĠáĬ¥áī°":1165,"ĠáĭĿáīĲ":1166,"ĠáĭĿáĬ¸áĭįáĬķ":1167,"áī£áĪĤ":1168,"ĠáĪĺáĪĪ":1169,"áĪĪáĭª":1170,"áĬĲáī³áĭĬ":1171,"áĪµáĪĪ":1172,"áĪµáĬĲáīµ":1173,"ĠáĬ¥áĭŀáĪĿ":1174,"áĬ£áĬķ":1175,"áĬ£áīµ":1176,"Ġáī¥áĪŃ":1177,"ĠáĪĿáĭį":1178,"áĪĭáĪį":1179,"áĪĭáĭķáĪĬ":1180,"ĠáĬķáĪĺ":1181,"ĠáĬķáĭĺ":1182,"ĠáĬķáĪĭáĭķáĪĬ":1183,"áĪ¨áī£":1184,"áĪĺáĪ°":1185,"áĪĺáĪ«":1186,"áĪĺáĪ¨áīµ":1187,"ĠáĬŃáĪ°":1188,"ĠáĬŃáīł":1189,"ĠáĬŃáįĪáĮ¥":1190,"áĭķáĭµ":1191,"áįįáĪ²":1192,"áĮ½áĪķ":1193,"ĠáĭĺáĪĺ":1194,"áĪħáĭĿ":1195,"ĠáĬ¨áĪİ":1196,"ĠáīĨ":1197,"áĪĵáīµáĬķ":1198,"áĪĵáĪ³":1199,"ĠáĮĬáĬĲ":1200,"áĭ°áĪŃ":1201,"Ġáī°áī£áĪĤ":1202,"áĭ³áĪĪ":1203,"áĭĪáĬ¨":1204,"áĭĪáī¶áĪĿ":1205,"Ġáĭĵáĭ²":1206,"ĠáĪĵáĪĭáįį":1207,"áĪĬáĪį":1208,"áįĪáīµ":1209,"áĮĭáĮĪ":1210,"Ġáī¥áĪĿáĮįáī£áĪŃ":1211,"ĠáĪķáĪĭáĮĪ":1212,"áĭĽáī¥":1213,"áīĥáĭĬ":1214,"áĭ®áĬķ":1215,"ĠáĮįáĭ°":1216,"ĠáĮįáĭľ":1217,"áĪŀáīµ":1218,"áĪ°áĪ¨áīµ":1219,"ĠáĭĺáĪĪáĭī":1220,"ĠáĪĥáĮĪáĪŃáĬķ":1221,"áĮĪáĪįáĮ¹":1222,"ĠáĭĺáĪĪáĭİáĪĿ":1223,"áĮ£áĪļ":1224,"áĬ¤áĪį":1225,"Ġáī¥áĭĻáĪķ":1226,"áĪĪáĬķáīµáĬĵ":1227,"ĠáĭĵáĪĺáīµ":1228,"áĪįáĬŃáĭķ":1229,"Ġáī°áĪĺáĪĥáĪ®":1230,"ĠáĭķáĭµáĪĭáīµ":1231,"ĠáĪĿáīµáĬ¥áĪµáĪ³":1232,"ĠáĭķáĪĽáĪĽáīµ":1233,"ĠáĭĿáĬ¸áĭŃáĭµ":1234,"ĠáĬŃáĪĪáī£áīµ":1235,"ĠáĬ£áĭĿáĭ©":1236,"ĠáĪħáĭŃáĭĪáīµ":1237,"Ġáĭ°áĪ«áįį":1238,"ĠáĭĿáĪĵáĪĪáįĪ":1239,"áĮįáĮĭáĪŃ":1240,"áĪįáĬ¨áīµ":1241,"áī°áĬ«áĬ¢":1242,"áĮįáĭĵáĭĬ":1243,"ĠáĭįáĪįáīĥáĭĬ":1244,"ĠáĮĬáĬĲáĪµ":1245,"..":1246,"«áĬ¥":1247,"Ġ8":1248,"áĪĨ":1249,"áĪĸ":1250,"áī´":1251,"áĭĤ":1252,"áĮħ":1253,"ĠáĪ³":1254,"ĠáĪ«áĬ¥":1255,"áī¥áī²":1256,"áī¥áĪĵ":1257,"áī¥áĪ©":1258,"áī¥áĬ»":1259,"Ġáĭ®":1260,"Ġáĭ¶":1261,"áīµáĪĿáĪħáĪŃ":1262,"áĪĿáī²":1263,"áĪŃáĭİ":1264,"ĠáĬ£áĪķ":1265,"ĠáĬ£áĭĪ":1266,"áĪįáī³áīµ":1267,"áĪįáĭį":1268,"áĪįáĭķáĪĬ":1269,"ĠáĬ¥áī³":1270,"áĬ¥áī³":1271,"áĬ¥áīµáī³":1272,"ĠáĭĿáįĪáĮ¥":1273,"áī°áįĪáĪĭáĪĪ":1274,"ĠáĪĺáĮ»áĬ¢":1275,"áī³áĭįáĭ«áĬķ":1276,"áĪĪáī²":1277,"áĪĪáĮ¸":1278,"áĪµáĬķ":1279,"áĪµáĪį":1280,"áĪµáĮĭ":1281,"áĬ£áĪįáĬķ":1282,"áĬ£áĬ¥áĪĿáĪ®":1283,"Ġáī¥áīµ":1284,"Ġáī¥áĪķ":1285,"Ġáī¥áĭµ":1286,"Ġáī¥áĭķ":1287,"Ġáī¥áįį":1288,"áĪ«áĬ¥":1289,"áĪ«áīµáĬķ":1290,"áĪķáĬĵ":1291,"áĮĪáĭ³":1292,"áĬĵáīµáĬķ":1293,"ĠáĪĿáī":1294,"áĪĭáĭĪ":1295,"áĪ¨áĪµ":1296,"áĮįáĬĵ":1297,"ĠáĬ£áī¥áĬĲáīµ":1298,"ĠáĬŃáī¥áĪ¨":1299,"áĪĽáĪħ":1300,"áĪĽáīµáĬķ":1301,"áĭķáĭŀ":1302,"áįįáĪĪáĮ¥":1303,"ĠáĭĺáĪķ":1304,"ĠáĬ¨áĬĲ":1305,"ĠáĬ¨áĪ¨áĮĭ":1306,"áĭĿáĬķ":1307,"áĭĿáĮĪáī¥":1308,"áĭĿáĪŃáĮĭ":1309,"áĭ°áīµ":1310,"áĭ°áĬĵ":1311,"Ġáī°áīł":1312,"Ġáī°áĪĽ":1313,"Ġáī°áīĲ":1314,"Ġáī°áĪŃáĬ¥":1315,"Ġáī°áī°áĬ«áĬ¢":1316,"áĭ³áīµ":1317,"ĠáĬĵáĮ»":1318,"ĠáĪµáĪĿ":1319,"áĭĪáĪį":1320,"áĭĪáĪĪ":1321,"áĭĵáīµáĬķ":1322,"áĮ¥áĬķ":1323,"áĮ¥áĪĿ":1324,"ĠáĪĵáĪ³":1325,"ĠáĪĵáĭ«áĪį":1326,"ĠáĪĵáī£áĪ«áĭĬ":1327,"ĠáīµáĪŃáĮī":1328,"ĠáĬ¨áĪĿáĭĺáĭŃ":1329,"áĪĥáĬķ":1330,"áĪĥáĭĿ":1331,"áĪĥáĪĽáĪĺáī°áĬ¤":1332,"Ġáĭķáĭ®":1333,"ĠáĭŃáī¥áĪį":1334,"ĠáĭŃáĬ½áĬ¥áĪį":1335,"ĠáĭĿáī°áĪ°":1336,"ĠáĭĿáī°áĬ£":1337,"ĠáĭĿáī°áĮĪáī¥áĪ¨":1338,"ĠáĭĿáī°áĮłáīķ":1339,"áī¶áĪĿáĬķ":1340,"áĭĺáī°":1341,"áĭĺáĪĪ":1342,"áĭĺáĪ®":1343,"ĠáĬĲáĮĪáĪŃ":1344,"ĠáĬķáĪĿáįį":1345,"ĠáĭĪáĪĪ":1346,"ĠáĭĪáĮĪ":1347,"ĠáĭĪáĮ»áĬ¢":1348,"ĠáĭĪáĮįáĭĵáĭĬ":1349,"ĠáĭįáĪ½":1350,"ĠáĭįáĮ½áĬ¢":1351,"ĠáĪħáĮ»":1352,"ĠáĮ¸áī¥áĮ»":1353,"ĠáĭĺáĭŃáĪĿ":1354,"Ġáĭ°áīĤ":1355,"ĠáĪĿáĪµáĮįáĮĭáĪŃ":1356,"áĪŀáĪĿ":1357,"ĠáĬ¥áĬķáĬ¨":1358,"áĬ©áĪĿ":1359,"ĠáĬ¥áĪĿáĬĲáīµ":1360,"ĠáĬ£áĪĪáĭī":1361,"áĪ±áĬķ":1362,"ĠáĬ¤áĪŃáīµáĪ«áĭįáĭ«áĬķ":1363,"ĠáĭĵáĪĪáĪĿáĬĵ":1364,"ĠáĭĿáīłáĪĥáĪį":1365,"ĠáĪĺáĮ½áĪĶáīµ":1366,"ĠáĪµáĬĲáĮ¥áīł":1367,"áĪĿáĪµáĪ«áīµ":1368,"Ġáī£áĪħáĪŃáĭ«áĭĬ":1369,"ĠáĪĺáĬķáĮį":1370,"ĠáĬ¨áī£áī¢áī³áīµ":1371,"ĠáĪŀáĭ«áĬķ":1372,"áĪ°áĬķáĬª":1373,"áĪŃáĪĴáī³áīµ":1374,"ĠáĭĿáĪĿáĭµ":1375,"ĠáīµáĪķáī²":1376,"ĠáīµáĪķáĭĿáī¶":1377,"Ġáĭŀáī£áī³áīµ":1378,"ĠáĬŃáĪĪáī¥":1379,"áĪĽáĭķáĪ¨":1380,"ĠáĬ¨áĭŃáī°":1381,"ĠáĭĿáĮ¸áĬķáĪĲ":1382,"áĮįáĪĪáĮ½":1383,"áĮįáĪĪáĮº":1384,"áĪĺáĮ½áĬ¥":1385,"áĪĽáĪķáīłáĪ«áĭĬ":1386,"ĠáĪµáĪŃáĪĵáīµ":1387,"ĠáĪĺáĮ½áĪĵáįį":1388,"Ġáī¥áĮįáī¡áĬ¥":1389,"Ġáī´áĪĽ":1390,"áĬ¥áĪĪáīµáĬķ":1391,"ĠáĭĿáĬ£áĪĺáĪ°":1392,"Ġáī¥áīĳáĭķ":1393,"ĠáīĥáĪį":1394,"ĠáĭŃáĪŃáĬ¨áī¥":1395,"áĬ»áĬ½áĪŃ":1396,"ĠáĪĿáĭķáīĥáĬķ":1397,"áĪ³áī°áįī":1398,"ĠáĪ°áįĬáĪķ":1399,"ĠáĬ®áĭŃáĬĸáĪĿ":1400,"ĠáĬ£áĮĭáĮ£áĪļ":1401,"ĠáĪĺáĪĪáĪĪáĭª":1402,"áĪħáĭĿáī¢":1403,"áĭĪáĬ¨áįį":1404,"áīµáĪĿáĪħáĪŃáī²":1405,"áĭĿáĪŃáĮĭáĪķ":1406,"Ġ3":1407,"áĪģ":1408,"áīĸ":1409,"áĭĸ":1410,"áĮĤ":1411,"ĠáĪª":1412,"áī¥áĪª":1413,"áī¥áįįáĪĭáĭŃ":1414,"áī¥áĬ¨áĪĭ":1415,"áĬķáī°":1416,"áĬķáĬĲ":1417,"Ġáĭĳ":1418,"áįĸ":1419,"áĪĿáĭ²":1420,"áĪĿáĪķáĭ°áĪ«":1421,"áĪŃáĬĵ":1422,"áĪŃáĬ©":1423,"áĪŃáĭ³áĬ¥":1424,"ĠáĬ£áĪ¨":1425,"áĪįáĬĲáī±":1426,"áĪįáĮ¦":1427,"áĪįáĪµáįį":1428,"áĭŃáĬĵ":1429,"áĭŃáī¶":1430,"áĭŃáĬĲáīµáĬķ":1431,"áĭŃáĪ®áĪĿ":1432,"ĠáĭĿáĮĪ":1433,"ĠáĭĿáĮ½":1434,"áī£áĪª":1435,"áī£áĭ®":1436,"ĠáĪĺáĪŃ":1437,"ĠáĪĺáīł":1438,"ĠáĪĺáĪ¨":1439,"ĠáĪĺáĭĪ":1440,"ĠáĪĺáĮİ":1441,"ĠáĪĺáĪ»":1442,"ĠáĪĺáĭĿáĮĪáī¥":1443,"ĠáĪĺáĮįáĪĪáĮº":1444,"áī³áĪĿ":1445,"áī³áĭįáĬķ":1446,"áĬĲáĭĬ":1447,"áĪµáĪĿ":1448,"áĪµáĬ«":1449,"áĪ°áī£áīµ":1450,"Ġáī¥áĬ£":1451,"Ġáī¥áĭį":1452,"Ġáī¥áĭ°":1453,"Ġáī¥áįįáĪĭáĭŃ":1454,"áĪ«áī¥":1455,"áĪ«áĭķ":1456,"áĪ«áĬ¸":1457,"áĪķáĮĭ":1458,"áĮĪáī¥áĪŃ":1459,"áĬĵáī¥":1460,"áĬĵáĭķ":1461,"áĬĵáĭ®":1462,"ĠáĪĿáī¥":1463,"ĠáĪĿáīħ":1464,"áĪĭáĬķ":1465,"ĠáĬķáĬ£":1466,"ĠáĬķáĭķ":1467,"ĠáĬķáĬ¡":1468,"ĠáĬķáĬ¹":1469,"áĪ¨áįĪ":1470,"áĮįáĪĥ":1471,"áĭµáī³áīµ":1472,"áĭµáĪĭáĭį":1473,"áĪĺáĭµ":1474,"ĠáĬŃáī¥áĪį":1475,"ĠáĬŃáī¥áĪŃáī³áīµ":1476,"ĠáĬŃáĪ³áī¥":1477,"ĠáĬŃáĬ¥áĪĪáīµáĬķ":1478,"áįįáīµáĪĴ":1479,"áĮ½áĪŃ":1480,"áĮ½áĪª":1481,"áĮ½áĭĭ":1482,"Ġáĭĺáĭ³":1483,"Ġáĭĺáīķ":1484,"ĠáĭĺáĭµáĪĬ":1485,"Ġáī¤":1486,"áĭįáĮ½áĭĭ":1487,"áĪīáĬ¥":1488,"áĪĵáĪµ":1489,"áĪĵáįįáī²":1490,"ĠáĮŃ":1491,"áĬ½áĬĲáīµáĬķ":1492,"áĭ°áĬķ":1493,"Ġáī°áĪĵ":1494,"Ġáī°áĮł":1495,"Ġáī°áĪµáįĭ":1496,"áĭ³áĭµ":1497,"ĠáĪµáĬ¥":1498,"áĭĪáĪ°áĬķ":1499,"áī¶áīµ":1500,"áĭĵáī°":1501,"áĭĵáĭĿ":1502,"áĭĵáī¢":1503,"áĭĵáī³áĭĬ":1504,"ĠáĪĵáĭ«":1505,"ĠáĪĵáĪ¨áĪµ":1506,"ĠáĪĵáĭĪáĪį":1507,"ĠáĭµáĪĮ":1508,"ĠáīµáīłáĪŃ":1509,"ĠáīµáĮ½áī¢áīµ":1510,"áĪĥáĭŃ":1511,"áĮĭáĭĿ":1512,"áĪ³áĬķ":1513,"áĪ³áĬº":1514,"ĠáĬ«áĪįáĬ¦áīµ":1515,"ĠáĬ«áĪįáĬ£":1516,"ĠáĭŃáĪķ":1517,"ĠáĭŃáĮĪáĪįáĮ½":1518,"ĠáĭŃáĬ¨áĬ£áĪį":1519,"ĠáĭĿáī°áĪ³":1520,"ĠáĭĿáī°áĬ»":1521,"Ġáī¥áĪĿáĭķ":1522,"áĪ©áĬķ":1523,"áĪ©áīµ":1524,"ĠáĬĲáĭŃáĪ©":1525,"ĠáĬķáĪĿáī¥":1526,"ĠáĬķáĪĿáĪŃáĮįáĮĭáĮ½":1527,"ĠáĪĽáĭķáĪŃ":1528,"ĠáĪķáĮ½":1529,"ĠáĪķáī¥áĪŃáī³áīµ":1530,"áĭĭáĪķ":1531,"ĠáīĢáĪĬáĪį":1532,"ĠáīħáĭµáĪļ":1533,"áĬĴáĬ«áĭĬ":1534,"áīĥáĭį":1535,"ĠáĪħáĬķáĮ»":1536,"ĠáĮ¸áĪĵáįįáī²":1537,"ĠáĭĺáĭŃáī°":1538,"ĠáĭĺáĭŃáī¥áĪī":1539,"Ġáĭ°áĪĥáĭŃ":1540,"ĠáīµáĪĿáĪħáĪŃáīµáĬķ":1541,"ĠáĮ½áĭįáĮ½áĭĭ":1542,"áĪŀáĭ«":1543,"áĭķáī£áĪį":1544,"ĠáĮĪáĮł":1545,"áĬ½áĬ¥áĪİ":1546,"áĬ©áĪ®":1547,"áĮ¹áĬķ":1548,"áĮ¹áĪŃ":1549,"Ġáī£áĪħáĪįáĬķ":1550,"Ġáī£áĪħáĮĬ":1551,"Ġáī£áĪħáĪĭáĭĬ":1552,"áīłáĪ¨áĪī":1553,"ĠáĬ¥áĬĵáĭĵ":1554,"ĠáĪĽáĪķáīłáĪ¨":1555,"áĪ½áīķáĪĪáīµ":1556,"ĠáĬ£áĪĪáĬĵ":1557,"Ġáī¥áĭĿáĪĴ":1558,"áĬ³áĬķ":1559,"ĠáĪĺáĮ½áĬĵáĭķ":1560,"ĠáĪµáĬĲáĮ½áĪĳ":1561,"ĠáĪµáĬĲáĬ£áĬ¥áĪĿáĪ®":1562,"ĠáĬ¥áĬķáī°áĭĺáĭŃ":1563,"áĬ¥áĪµáĬĲáīµ":1564,"ĠáĪĿáĪħáĪĭáĭį":1565,"ĠáĭĪáĭŃáĭĺáĪ®":1566,"ĠáĭĿáĪŃáĬ¨áī¥":1567,"ĠáĭĿáĪŃáĬ¨áī¡":1568,"ĠáĬ¢áĪī":1569,"áĪįáĬŃáīµ":1570,"Ġáī¥áīĲáĪĬ":1571,"áĪĤáĭĪáīµ":1572,"ĠáĪŀáĭ«":1573,"ĠáĪĿáīµáī¥áī£áĭķ":1574,"ĠáĬŃáĪħáĪįáĭİ":1575,"ĠáĮīáĭķáĭŀ":1576,"áī£áĭķáī°":1577,"ĠáĬŃáįįáĪĬ":1578,"ĠáĬŃáĬ¢áĪī":1579,"ĠáĪĤáĭĪáīµ":1580,"áĮĪáī¥áĪ®":1581,"ĠáīĢáĭ³áĪŀáīµ":1582,"Ġ200":1583,"áĬ¥áĬķáī°":1584,"áī°áĬ£áī³":1585,"áĪĺáĮ½áĪĶáīµ":1586,"ĠáĪµáĪŃáĭĵáī°":1587,"Ġáī¥áĪĿáĭĥáĬĳ":1588,"ĠáĪįáĪĿáĭĵáī³áĭĬ":1589,"ĠáĮ¸áĮĪáĪĿ":1590,"áĪµáĬĲáĮ¥áīł":1591,"ĠáĮ½áĪĳáįĭáīµ":1592,"ĠáĪŃáĬ¥áĭŃáī¶":1593,"áĪµáīµáĪª":1594,"Ġáī¥áĪĺáĮł":1595,"ĠáĮİáĭ°áĬĵ":1596,"áĬ«áĭ¨áĭµ":1597,"ĠáĭĿáĬĲáĭįáĪĲáīµ":1598,"áī¥áĭĻáĪķ":1599,"ĠáĪĺáĪ°áĬ»áĬ½áĪŃ":1600,"Ġáī¥áĪįáĮ½":1601,"ĠáĬ¹áĪī":1602,"ĠáįĸáĪĪáī²":1603,"áĬ£áĬķáīłáī¥áī²":1604,"ĠáĬŃáīłáĪĥáĪį":1605,"áįįáĪ²áĭĪáĬ¨áįį":1606,"Ġáī°áī£áĪĤáĪī":1607,"ĠáĪĵáĪĭáįįáĬĲáīµ":1608,"ĠáīµáĪŃáĮīáĪĿ":1609,"ĠáĭĪáĮĪáĬķ":1610,"ĠáĭįáĮ½áĬ¢áīµ":1611,"ĠáĮ¸áī¥áĮ»áī£áīµ":1612,"ĠáĭĿáĬ£áĪĺáĪ°áĪĪ":1613,"ĠáīĥáĪįáĪ²":1614,"ĠáĪĺáĪ¨áĭ³áĬ¥áī³":1615,"ĠáĪĺáĭĪáĭ³áĬ¥áī³":1616,"ĠáĪĺáĪ»áĪŃ":1617,"ĠáĬķáĬ¡áĪµ":1618,"ĠáĪĵáĪ¨áĪµáī¶áīµ":1619,"ĠáĪĵáĭĪáĪįáī²":1620,"ĠáīµáīłáĪŃáĪħ":1621,"ĠáĭĿáī°áĬ»áĭ¨":1622,"00":1623,"Ġ4":1624,"áī«":1625,"áīĨ":1626,"áīĪ":1627,"áĮĮ":1628,"áī¥áĪķ":1629,"áī¥áīķ":1630,"áī¥áīĲ":1631,"áī¥áī£áĪŃ":1632,"áī¥áĭĺáĭŃ":1633,"áĬķáīł":1634,"áĬķáĮĪ":1635,"áĬķáĪĵ":1636,"áĬķáīħ":1637,"áīµáĪķ":1638,"áĪĿáĪħ":1639,"áĪĿáĮĭ":1640,"Ġáį¦":1641,"áĪŃáī¥":1642,"ĠáĬ£áĪĭ":1643,"ĠáĬ£áĭµ":1644,"ĠáĬ£áĪĽ":1645,"ĠáĬ£áĭį":1646,"ĠáĬ£áĬ½":1647,"ĠáĬ£áĪĥ":1648,"ĠáĬ£áī¦":1649,"ĠáĬ£áīķáĪª":1650,"áĪįáĪĿ":1651,"áĪįáīł":1652,"áĪįáīĢ":1653,"áĪįáĭĳáĪį":1654,"áĪįáįĬ":1655,"áĪįáĮ¡":1656,"áĪįáĭ®áĬķ":1657,"áĭŃáĭİ":1658,"ĠáĬ¥áĪŀ":1659,"áĬ¥áĪĪáīµ":1660,"ĠáĭĿáī¥":1661,"ĠáĭĿáīķ":1662,"ĠáĭĿáĮ¥":1663,"ĠáĭĿáĪŃáĮį":1664,"ĠáĭĿáĮĪáĪįáĮ½":1665,"ĠáĭĿáĬ¨áĬ£áĪį":1666,"ĠáĭĿáĬ½áĬ¥áĪī":1667,"ĠáĭĿáĪ¨áĬ½áī¡":1668,"áī°áĬķ":1669,"áī°áĭŃ":1670,"áī£áĪħáĪŃ":1671,"ĠáĪĺáĭĵáĪį":1672,"ĠáĪĺáĪ«áĬ¸":1673,"áī³áī±":1674,"áī³áĪªáĬ½":1675,"áĪĪáī¥":1676,"áĪĪáĪį":1677,"áĪĪáĭŃ":1678,"áĬĲáīłáĪ¨":1679,"áĬĲáī³áĭįáĭ«áĬķ":1680,"áĪµáĭ«":1681,"áĪ°áįĬ":1682,"áĬ£áĭį":1683,"áĬ£áĪī":1684,"Ġáī¥áĭĺ":1685,"áīłáīµ":1686,"áīłáĪ®":1687,"áĪ«áĪĽ":1688,"áĪ«áĭįáĭ«áĬķ":1689,"áĬĵáĮ»":1690,"áĬĵáī³áīµáĬķ":1691,"ĠáĪĿáĬ¥":1692,"ĠáĪĿáĪķ":1693,"ĠáĪĿáĮį":1694,"ĠáĪĿáĪŃáĮįáĮĭáĮ½":1695,"ĠáĪĿáĪīáĬ¥":1696,"áĭ«áĭª":1697,"áĪĭáĭįáĬķ":1698,"áĪĭáĭī":1699,"ĠáĬķáĭµ":1700,"ĠáĬķáĭį":1701,"ĠáĬķáīĳ":1702,"ĠáĬķáĪĺáĬķáĬ¥áĪ°áĭ«áīµ":1703,"ĠáĬķáĬ¥áĪµáĬĲáīµ":1704,"áĪ¨áĭµ":1705,"áĮįáĪŃ":1706,"áĮįáī²":1707,"áĭµáĪŃ":1708,"áĭµáĬ«":1709,"ĠáĬ£áī¥áĬĲáī³áĭįáĭ«áĬķ":1710,"áĪĺáīµ":1711,"ĠáĬŃáĪµ":1712,"ĠáĬŃáĮį":1713,"ĠáĬŃáĮĪáĪįáĮ½":1714,"ĠáĬŃáĪ¨áĬ½áī¡":1715,"ĠáĬŃáĪŃáĬł":1716,"áĪĽáĪĿ":1717,"áĪĽáĪį":1718,"áĪĽáīķ":1719,"áĭķáī¥":1720,"áĭķáĬĵ":1721,"áįįáīķáĪª":1722,"áĮ½áĬķ":1723,"ĠáĭĺáĮĪáĪįáĮį":1724,"ĠáĭĺáĮĪáĪŃ":1725,"áĪħáī¥":1726,"áĪħáĪī":1727,"áĪħáĮī":1728,"ĠáĬ¨áĪĪ":1729,"ĠáĬ¨áĬ«":1730,"Ġáīĺ":1731,"áĭįáĪķ":1732,"áĭĿáĮĪ":1733,"áĭĿáĪĳ":1734,"áĪīáĭŃ":1735,"áĪĵáĬķ":1736,"áĪĵáĬķáī²":1737,"ĠáĮĮ":1738,"áĪªáī¡":1739,"áĪİáĪļ":1740,"áĭ°áĭŃ":1741,"Ġáī°áĪ°":1742,"Ġáī°áĬ£":1743,"Ġáī°áĭĵ":1744,"Ġáī°áĮ»":1745,"Ġáī°áĮ¸":1746,"Ġáī°áĬ»":1747,"Ġáī°áĬ½áĬ¥áĪİ":1748,"áĭ³áĪŃ":1749,"áĭ³áĭ°":1750,"áĭ³áĭ«áīµ":1751,"ĠáĪµáĪį":1752,"ĠáĪµáĬĴ":1753,"áĭĪáĪµ":1754,"áĭĵáīķ":1755,"áĬ¨áĬ£áĪįáĬķ":1756,"áĬŃáĪµ":1757,"ĠáĭĵáĪļ":1758,"ĠáĭĵáĪĿáĭ²":1759,"áĮ¥áīĥ":1760,"ĠáĪĵáĭŃ":1761,"ĠáĭµáĪį":1762,"ĠáĭµáĬ½áĬĲáīµáĬķ":1763,"áĮ»áĬ¥":1764,"áĬ£áī¥áĭļ":1765,"áįĪáĪ»":1766,"áįĪáī°áĬĲ":1767,"áĪ³áĭŃ":1768,"Ġáĭķáĭ³":1769,"ĠáĭķáĭµáĪį":1770,"ĠáĭŃáĪ°":1771,"ĠáĭŃáĬ¸áĭįáĬķ":1772,"ĠáĭŃáĬ¾áĬĳ":1773,"ĠáĭŃáĮĪáĪįáĮ¹":1774,"ĠáĭĿáī°áĪĺ":1775,"ĠáĭĿáī°áĪĺáĪŃ":1776,"Ġáī¥áĪĿáī£áĪį":1777,"Ġáī¥áĪĿáĮįáĬķ":1778,"áĭĺáĬĴ":1779,"ĠáĬĲáĭĽ":1780,"ĠáĪĽáĭķ":1781,"ĠáĭĪáĭĺáī°":1782,"áī¡áĪŃ":1783,"áī¡áĮ¥":1784,"ĠáĪķáĪŃáĪ»":1785,"ĠáĪķáĪĺáĪ¨áīµ":1786,"ĠáĪķáī³áĪĿ":1787,"áĬ¸áĭŃáĭµ":1788,"áĭĭáĬķ":1789,"áĭĭáīµ":1790,"áĭĭáĪĭ":1791,"ĠáīĢáī£":1792,"áĭĽáĬķ":1793,"ĠáīħáĪŃ":1794,"ĠáĭįáĪĳ":1795,"Ġáĭįáĭ±":1796,"ĠáĪħáĪĭáĭĪ":1797,"ĠáĮ¸áĮĭ":1798,"ĠáĮ¸áĮĭáī³áīµ":1799,"ĠáįįáĮ¹":1800,"ĠáįįáīµáĪĴ":1801,"áĬ»áĪįáĬ¦áīµ":1802,"áī¥áĬ£áĭĬ":1803,"ĠáĮ½áĪĭáīµ":1804,"ĠáĮ½áĪŃáĮį":1805,"áĪŀáĬķáī°":1806,"ĠáĬ®áĪĿáĬķ":1807,"ĠáĮĪáĭŃáĪ©":1808,"ĠáĮĪáĪĿáĮĭ":1809,"áĪ°áĪ¨áī°":1810,"Ġáīłáī¥":1811,"Ġáīłáī²":1812,"ĠáĭĺáĪĪáĭį":1813,"áī¥áĪŃáĬķ":1814,"áī¥áĪįáĭĳáĪį":1815,"áĪĲáīµ":1816,"áĬ¹áĪµáĬ³áĪµ":1817,"áĬ¹áĪĪáĬķáīµáĬĵ":1818,"ĠáĬ£áĭŃáī°":1819,"áĪŃáĬ¨áī¡":1820,"ĠáĮ¥áīł":1821,"ĠáĮ¥áīķ":1822,"ĠáĮ¥áīłáī¥":1823,"áĪ½áĬķ":1824,"ĠáĭĵáĪĪáĪĽáĭĬ":1825,"áĮīáĪµ":1826,"áĮºáĪŃ":1827,"áĮİáĪį":1828,"ĠáĪĿáĭĥáĬĵ":1829,"ĠáĪĿáĭĥáĬĸáĪĿ":1830,"ĠáĪķáī¥áĪ¨áī°áĪ°":1831,"ĭáĬķáīĭ":1832,"áī¤áīµ":1833,"áĭ¶áĬŃáī°áĪŃ":1834,"ĠáĪŃáĬ¥áĪ°":1835,"ĠáĪ¨áī¥áĪĵ":1836,"áĮĥáĪĿ":1837,"áĮ£áĪŃ":1838,"ĠáĬ¥áĬķáī°áĬ¾":1839,"Ġ10":1840,"Ġ12":1841,"Ġ19":1842,"ĠáĭĿáĪĺáĮ¸":1843,"ĠáĬ£áĬ«áĪį":1844,"ĠáĭĿáĪŃáĬ¨áīłáĪī":1845,"ĠáĭķáĪĭáĪĽáī³áīµ":1846,"ĠáĬ¢áĪĪ":1847,"ĠáĬ¢áĬĵ":1848,"ĠáĪĺáĬķáįĪ":1849,"Ġáī¥áīĲáĪ¨áī£":1850,"ĠáĪĿáĪĿáĪķ":1851,"ĠáĪĿáĪĿáĭķáī£áĪį":1852,"ĠáĬŃáĪħáĪį":1853,"áĮĬáīµ":1854,"ĠáĭĿáĪĿáĪįáĬ¨áīµ":1855,"ĠáĪĿáĭķáĪ«":1856,"ĠáĬ£áĪµáĪĺáĪ«":1857,"ĠáĬ£áīłáĪŃáĬŃáī¶áĬķ":1858,"Ġáī°áĭĪáįĭ":1859,"ĠáĪħáĭĿáī¢áĬķ":1860,"áīĵáīķ":1861,"ĠáĪĤáĭĪáī¶áĪĿ":1862,"áī°áĭĪáĪİáĪĿ":1863,"ĠáĬŃáī¥áĪĥáĪį":1864,"áĪĽáĪķáīłáĪŃ":1865,"ĠáĮłáīķ":1866,"Ġáī¥áĪĿáĭĥáĬķ":1867,"Ġáī¥áĪĿáĭĥáĬĸáĪĿ":1868,"ĠáĪįáĪĿáĭ³áĭĬ":1869,"ĠáĭĭáĪĭ":1870,"áīµáī³áĬķ":1871,"ĠáĬ¨áī°áĪĽ":1872,"ĠáīģáĮ½áĪª":1873,"áĭĵáĪĪáĪĿ":1874,"áĮĵáĭĵáĭĿ":1875,"áĬķáĮ¸áī£áĪŃ":1876,"áĬķáīĢáĪ³":1877,"Ġáī¥áĮįáī¥áĪª":1878,"Ġáī¥áĪĵáīĤ":1879,"Ġáī´áĬŃ":1880,"ĠáĪĺáĪ³áĪŃáĪĴ":1881,"áĪĺáĪµáĪŃáĪķ":1882,"Ġáī£áĭķáĪĭ":1883,"Ġáī£áĭķáĪİáĪĿ":1884,"ĠáĭĿáĬĲáīłáĪ®":1885,"ĠáĪŃáĬ¥áĪ²":1886,"áī¥áĭĿáĪĴ":1887,"ĠáĪĺáĪªáĪķ":1888,"ĠáĬķáīķáĪĵáīµáĬķ":1889,"ĠáĮĢáĪļ":1890,"ĠáĬķáĪĿáīµáĮįáī£áĪŃ":1891,"ĠáĬķáĪĿáīµáĬ¥áīµáī³":1892,"áī¥áĪĺáĪ°áĪ¨áīµ":1893,"áĬķáĭįáĪĵ":1894,"ĠáĬ£áĪŃáĬ¥áĪµ":1895,"ĠáĬ£áĪŃáī£áĭķáī°":1896,"ĠáĭĿáĪĪáĭĵáĪĪ":1897,"ĠáĭĿáĭĵáīłáĭ¨":1898,"ĠáĪĺáĪĿáĭĺáĬĴ":1899,"ĠáĬŃáĬ¸áĭŃáĭµ":1900,"Ġáĭĺáī°áī£áī¥":1901,"ĠáĪµáĪįáĮłáĬĵáī³áīµ":1902,"áĭĵáĭŃáĬĲáī±":1903,"Ġáĭĵáĭįáĭµáī³áīµ":1904,"Ġáĭįáĭµáī¥":1905,"ĠáĪļáĬ¥áī³áĭĬáīµ":1906,"ĠáĬŃáĬ¢áĪĭáī³áīµ":1907,"Ġ2011":1908,"Ġáĭ³áĭŃ":1909,"ĠáĬ£áĬ¨áī£áī¢":1910,"áĪµáĪĪáĭļ":1911,"ĠáĬŃáįĪáĮ¥áĪ©":1912,"áĭĤáĪµáĬ³áĪµ":1913,"áī¥áĬ»áĪįáĬ¥":1914,"áī°áįĪáĪĭáĪĪáĭ¨":1915,"áĪµáĮĭáĪµ":1916,"Ġáī¥áĭµáĪĨ":1917,"áĪ«áĬ¥áĭ®áĪĿ":1918,"ĠáĪĿáī¹":1919,"Ġáī°áĪŃáĬ¥áĭ®":1920,"ĠáĪĵáĪ³áī£áīµáĬķ":1921,"ĠáĭĿáī°áĮłáīķáĪ°":1922,"ĠáĪħáĮ»áĬĵáīµáĬķ":1923,"ĠáĬ¥áĬķáĬ¨áĪİ":1924,"Ġáĭĳáįį":1925,"áĬĲáĭĬáĪķ":1926,"áĪķáĮĭáĭĬ":1927,"Ġáī¤áīµ":1928,"ĠáĪĽáĭķáĪŃáĬĲáīµáĬķ":1929,"ĠáĪķáĮ½áĪ¨":1930,"ĠáĪµáĬĲáĮ½áĪĳáįį":1931,"áĪµáĬĲáĮ¥áīłáī£áĭĬ":1932,"Ġáī¥áĪĺáĮłáĬĳ":1933,"ĠáįĸáĪĪáī²áĬ«":1934,"áī¥áīĲáĬķáĭ±":1935,"ĠáĭĿáĪŃáĮįáĪĲ":1936,"ĠáĪĺáĪ«áĬ¸áī¢":1937,"ĠáĭĺáĮĪáĪŃáĪĿ":1938,"Ġáī°áĬ»áĭŃáĭ±":1939,"Ġáī¥áĪĿáĮįáĬķáĭĽáī¥":1940,"ĠáįįáĮ¹áĪĿ":1941,"áĬ¹áĪĪáĬķáīµáĬĵáĬ¡":1942,"ĠáĮ¥áīłáī¥áĬķ":1943,"´áįį":1944,"»áĪįáĬ¥":1945,"»áĭŃáĬĵ":1946,"ĠáīµáĬķ":1947,"áĪ¾":1948,"áĪĢ":1949,"áĪ´áįį":1950,"áĬ²":1951,"áī¨":1952,"áīĺ":1953,"áīļ":1954,"áĭĲ":1955,"ĠáĬł":1956,"ĠáĬ»áĪįáĬ¥":1957,"áĮª":1958,"ĠáĪ±":1959,"ĠáĪİ":1960,"áī¥áĪ«":1961,"áī¥áĭ«":1962,"áī¥áĪ®":1963,"áī¥áĭĽ":1964,"áī¥áĬ¦":1965,"áī¥áĪ°áĬķáĬª":1966,"áĬķáīµ":1967,"áĬķáĮ½":1968,"áĬķáĭ«áīµ":1969,"áĬķáĬ¹":1970,"áĬķáīĤ":1971,"áĬķáĮİ":1972,"áĬķáī«":1973,"Ġáĭ©":1974,"ĠáĭĴ":1975,"áįĮ":1976,"áįķ":1977,"áīµáĪŃ":1978,"áīµáĮ½áī¢áīµ":1979,"áĪĿáĪŃ":1980,"áĪĿáī¥áĭ«":1981,"Ġáįĭ":1982,"Ġáįķ":1983,"áĪŃáĬĲ":1984,"áĪŃáĭ©":1985,"áĪŃáĬª":1986,"áĪŃáĬ¥áĪµ":1987,"ĠáĬ£áĬĲ":1988,"ĠáĬ£áĪ«":1989,"ĠáĬ£áĭ¨":1990,"ĠáĬ£áĭĭ":1991,"ĠáĬ£áĮ¸":1992,"ĠáĬ£áīĥáĭį":1993,"ĠáĬ£áĪħáĮī":1994,"áĪįáĪĪ":1995,"áĪįáĭķ":1996,"áĪįáĭ¨":1997,"áĪįáĬ©":1998,"áĭŃáĪ®":1999,"áĭŃáĪŃáĭİ":2000,"áĬ¥áīµ":2001,"áĬ¥áĭŀáĪĿ":2002,"ĠáĭĿáĭķ":2003,"ĠáĭĿáĬ½":2004,"ĠáĭĿáĬŃ":2005,"ĠáĭĿáĮł":2006,"ĠáĭĿáĪĥ":2007,"ĠáĭĿáĪĵáīµ":2008,"ĠáĭĿáĪĿáĪµ":2009,"ĠáĭĿáĬ¾áĬĳ":2010,"ĠáĭĿáĪ³áī°áįī":2011,"ĠáĭĿáĬ«áĭ¨áĭµ":2012,"ĠáĭĿáĪ°áĪ¨áī°":2013,"áī°áĪ«":2014,"áī°áĭį":2015,"áī°áĪī":2016,"áī°áĬ¨":2017,"áī£áĮ¥":2018,"áī£áĬķáĭ«":2019,"ĠáĪĺáĮį":2020,"ĠáĪĺáĪ«áĪķ":2021,"ĠáĪĺáĪ¬":2022,"ĠáĪĺáĮĢ":2023,"ĠáĪĺáĪĥáĭĿ":2024,"ĠáĪĺáĮĵáĭĵáĭĿ":2025,"áī³áĬķ":2026,"áĪĪáĬŃáīµ":2027,"áĬĲáĭĽ":2028,"áĬĲáī¥áĪ¨":2029,"áĬĲáīłáĪ®":2030,"áĪµáī£":2031,"áĪµáĪ³":2032,"áĪµáįī":2033,"áĪµáĭµáĪ«áī¤":2034,"áĪµáĬĲáī±":2035,"áĪµáī°áĪŃ":2036,"áĪµáīĵ":2037,"áĪµáĮ¦":2038,"áĪ°áĬĲ":2039,"áĪ°áĪīáĬķ":2040,"áĬ£áĭŃ":2041,"áĬ£áĬ«":2042,"áĬ£áĭįáĬķ":2043,"áĬ£áĪİáĪĿ":2044,"áĬ£áī£áĪĭáīµ":2045,"áĬ£áĮĪáĭ³":2046,"Ġáī¥áĬķ":2047,"Ġáī¥áĬ½":2048,"Ġáī¥áĭĪ":2049,"Ġáī¥áĪ°áĬķáĬª":2050,"Ġáī¥áī¥áīķ":2051,"Ġáī¥áĪ°áįĬ":2052,"áīłáĮĪ":2053,"áīłáī²":2054,"áīłáĭŃáĬĳ":2055,"áīłáĬĽ":2056,"áīłáĪĪáĮ¸":2057,"áĪ«áĬķ":2058,"áĪ«áĪį":2059,"áĪķáīµ":2060,"áĪķáī¥áĪ¨áī°":2061,"áĪķáįĪáīµ":2062,"áĮĪáĪ«áīµ":2063,"áī²áĪĻ":2064,"áĬĵáĭ³":2065,"áĬĵáī±":2066,"áĬĵáĮ¸":2067,"ĠáĪĿáĮ½":2068,"ĠáĪĿáĭĿ":2069,"ĠáĪĿáī£áĪį":2070,"ĠáĪĿáĪŃáĬ£":2071,"ĠáĪĿáĪķáĭ°áĪ«":2072,"ĠáĪĿáĪŃáĬ©":2073,"ĠáĪĿáĪįáĬŃáīµ":2074,"ĠáĪĿáĭĤáĪµáĬ³áĪµ":2075,"áĭ«áĭµ":2076,"áĪĭáĪķ":2077,"áĪĭáĪĭ":2078,"áĪĭáī³áīµ":2079,"áĪĭáĮ¥":2080,"ĠáĬķáĮį":2081,"ĠáĬķáĬ¸":2082,"ĠáĬķáĪ±":2083,"ĠáĬķáĪĥáĮĪáĪ«áĭĬ":2084,"ĠáĬķáĪ¸":2085,"ĠáĬķáĮ¹áĪŃ":2086,"ĠáĬķáįĪáī°áĬĲ":2087,"ĠáĬķáĬ»áĪįáĬ¦áīµ":2088,"ĠáĬķáĮīáĪµ":2089,"ĠáĬķáĭĵáĪĪáĪĿ":2090,"ĠáĬķáĬĲáĭĬáĪķ":2091,"áĪ¨áĪī":2092,"áĪ¨áĬŃ":2093,"áĮįáĭ°":2094,"áĮįáĮ¹":2095,"áĮįáĭĴ":2096,"áĮįáĪ¶":2097,"áĮįáĭĽáĬ¥":2098,"áĭµáĪĿ":2099,"áĭµáĭŃ":2100,"áĭµáĪª":2101,"áĭµáĪ®":2102,"áĭµáĮĵ":2103,"áĭµáĬ³áĬķ":2104,"áĪĺáĪī":2105,"áĪĺáĭĵ":2106,"ĠáĬŃáĭķ":2107,"ĠáĬŃáĭĿ":2108,"ĠáĬŃáĭ³":2109,"ĠáĬŃáī¥áĪŃ":2110,"ĠáĬŃáĭµáĪį":2111,"ĠáĬŃáĬķáĭ²":2112,"ĠáĬŃáĮ¥áīĢ":2113,"ĠáĬŃáĮĪáĪįáĮ¹":2114,"ĠáĬŃáĪĺáĮ½áĬ¥":2115,"ĠáĬŃáĮĪáī¥áĪŃ":2116,"áĪĽáĪįáĬ¥":2117,"áĪĽáĪĿáĬķ":2118,"áĭķáĬĵáĬķ":2119,"áįįáĪŃ":2120,"áįįáīħ":2121,"áĮ½áĪĿ":2122,"áĮ½áĬĵ":2123,"ĠáĭĺáĪµ":2124,"Ġáĭĺáĭķ":2125,"ĠáĭĺáĮĭ":2126,"ĠáĭĺáĪĲ":2127,"ĠáĭĺáĬ½áĬ¥áĪį":2128,"Ġáĭĺáī°áĬ£":2129,"ĠáĭĺáĪŃáĬ¥áĪµ":2130,"áĪħáĬķ":2131,"áĪħáī¦":2132,"áĪħáĬĵáĮ½":2133,"ĠáīĭáĬķáīĭ":2134,"Ġáī»áĭŃáĬĵ":2135,"áĭįáĭķ":2136,"áĭįáĪĥ":2137,"áĭįáĬŃáĪį":2138,"áĭįáĪħáī¦":2139,"áĭĿáĭ«áĭ³":2140,"áĪīáĭį":2141,"áĪīáĬĴ":2142,"áĪĵáĭŃ":2143,"áĪĵáįį":2144,"áĪĵáĪĭáįį":2145,"áĪªáĬŃ":2146,"áĪªáĬ«áĬķ":2147,"áĪİáĪŀ":2148,"áĪİáĪĿáĬķ":2149,"áĪİáĮĤ":2150,"áĭ°áĮį":2151,"áĭ°áī¡":2152,"Ġáī°áĪŀ":2153,"Ġáī°áĮįáī£":2154,"Ġáī°áĭįáĪħáī¦":2155,"áĭ³áĪĿ":2156,"áĭ³áĪį":2157,"áĭ³áĬĲ":2158,"áĬ«áĪįáĬ¥":2159,"áīķáĮ¢":2160,"áīķáĪ«áī¥":2161,"áĭĪáī±":2162,"áĭĵáĪĺ":2163,"áĭĵáī¥áĬķ":2164,"áĬ¨áĪŃáĭµ":2165,"áĬ¨áĬĵáīµ":2166,"áĬ¨áĪĺáĭŃ":2167,"áĬŃáĪĪ":2168,"ĠáĭĵáĭĪ":2169,"ĠáĭĵáĪ°áĪŃ":2170,"Ġáĭĵáĭ«áĭª":2171,"ĠáĪĥáī¥":2172,"ĠáĪĥáĪĽáĪĺáī°áĬ¤":2173,"áĮłáĪŃ":2174,"áĮłáĪ«":2175,"áĮ¥áĪĻ":2176,"ĠáĪĵáĪŃ":2177,"ĠáĪĵáĮĪ":2178,"ĠáĪĵáĪĻ":2179,"ĠáĪĵáĪ³áī¥":2180,"ĠáĪĵáĬķáī²":2181,"ĠáĭµáĪ«áĪĽ":2182,"ĠáīµáĪµáįī":2183,"áĮ»áīµ":2184,"áĮ»áĪĽ":2185,"áĮ»áįį":2186,"áĮ»áĪĬ":2187,"áĬ£áī¥áĬĲáīµ":2188,"ĠáĬ¨áĪĿáĭļ":2189,"áĪĥáĪĥ":2190,"áĮĭáĪļ":2191,"áĭ¨áĬķ":2192,"áĭ¨áĪŃ":2193,"áĪ³áĪ°áĪŃ":2194,"ĠáĭķáĬķ":2195,"ĠáĭķáĭĻ":2196,"Ġáĭķáĭī":2197,"Ġáĭķáī¤áīµ":2198,"ĠáĬĵáĭŃáī²":2199,"ĠáĬĵáĭŃáĭļ":2200,"ĠáĬ«áĬķáī«":2201,"ĠáĭŃáĪµ":2202,"ĠáĭŃáĮ½":2203,"ĠáĭŃáĮįáī£":2204,"ĠáĭŃáįįáĪĪáĮ¥":2205,"ĠáĭŃáĮįáĪĪáĮ½":2206,"ĠáĭŃáĪĺáĮ½áĬ¥":2207,"ĠáĭŃáĬ¸áĭŃáĭµ":2208,"áī¢áĪ©":2209,"ĠáĭĿáī°áĭ³áĪĪ":2210,"Ġáī¥áĪĿáĬ¥":2211,"Ġáī¥áĪĿáĪµ":2212,"Ġáī¥áĪĿáįį":2213,"Ġáī¥áĪĿáĭį":2214,"Ġáī¥áĪĿáĬ¥áī³":2215,"Ġáī¥áĪĿáĪŃáĭ³áĬ¥":2216,"Ġáī¥áĪĿáĮįáĭĽáĬ¥":2217,"ĠáĬ¥áĭļáĬ£":2218,"áĪ©áĭŃ":2219,"áĭĺáĬĵ":2220,"ĠáĬĲáī£áĪª":2221,"áĬĳáĬķ":2222,"ĠáĬķáĪĿáĪĿ":2223,"ĠáĬķáĪĿáĪµ":2224,"ĠáĬķáĪĿáĭķ":2225,"ĠáĬķáĪĿáĮįáī£":2226,"ĠáĬķáĪĿáĮŃ":2227,"ĠáĬķáĪĿáĪħáĬĵáĮ½":2228,"ĠáĪĽáĭŃ":2229,"áĭ²áĬ¡":2230,"ĠáĭĪáįį":2231,"ĠáĭĪáĭ²":2232,"áī¡áīķ":2233,"áī¡áĪ«áīµ":2234,"ĠáĪķáī¶":2235,"ĠáĪķáĭµáĪª":2236,"ĠáĪķáī¡áĪ«áīµ":2237,"áĭĭáĪµ":2238,"áĭĭáĪħ":2239,"áĮ¸áĬķáĪĲ":2240,"ĠáīĢáĪªáī¡":2241,"áĪĳáĬķ":2242,"áĪĳáīķ":2243,"áĭĽáĮĬáīµ":2244,"ĠáīħáĬķ":2245,"Ġáīħáĭ«áī³áīµ":2246,"ĠáīħáĪįáĭį":2247,"ĠáĭįáĪŃáĪ»":2248,"ĠáĮ¸áīķáĮ¢":2249,"áīĲáĬķ":2250,"áĭ±áĪį":2251,"ĠáįįáĪŃ":2252,"ĠáįįáĪįáĪµáįį":2253,"ĠáĮįáĪĿáīµ":2254,"ĠáĭĺáĭŃáīµ":2255,"ĠáĭĺáĭŃáĪķáĮĭáĭĬ":2256,"áī¥áĪ¨áĪĤáĭĪáīµ":2257,"áĬ»áĬķ":2258,"áĬ»áĪį":2259,"ĠáĪ°áĪª":2260,"ĠáĪ°áī¥áĬ£áĭĬ":2261,"Ġáĭ°áĪª":2262,"Ġáĭ°áī¡":2263,"ĠáĪĿáĪµáĬŃ":2264,"ĠáĪĿáĪµáĪ«áĪķ":2265,"áĬ¾áĬķ":2266,"áīĢáĮ»":2267,"ĠáīµáĪĿáĪħáĪŃáī³áĭĬ":2268,"ĠáĮ½áĪķáįĪáīµ":2269,"áĪŀáĭĿ":2270,"ĠáĬ®áĬĲ":2271,"ĠáĬ¥áĬķáĮį":2272,"ĠáĬ¥áĬķáĪµáĪ³":2273,"áĬ¦áĪĿáĬķ":2274,"ĠáĮĪáĪĪ":2275,"ĠáĮĪáĪĬ":2276,"ĠáĮĪáĭ²":2277,"ĠáĮĪáĭĽáĬ¥":2278,"ĠáĮĪáĭŃáĪ®áĪĿ":2279,"ĠáĮĪáĪµáĮĭáĪµ":2280,"ĠáĮĪáī¥áĪ¨áĪĤáĭĪáīµ":2281,"ĠáīłáĮº":2282,"ĠáīłáĭŀáĪĿ":2283,"ĠáīłáĭĵáĪį":2284,"ĠáīłáīłáĭŃáĬĳ":2285,"ĠáĬ¤áĪĪáĬŃáīµ":2286,"ĠáĭĺáĪĪáĬĵ":2287,"ĠáĪĥáĮĪáĪŃáĬĵ":2288,"áī¥áĪŃáĮįáĮ½":2289,"ĠáĬ£áįįáĪįáĮ¦":2290,"áĬ¹áĪĿ":2291,"áĭīáĬķ":2292,"ĠáĬ©áĪİáĪĿ":2293,"ĠáĬ©áĪĪáĬķáīµáĬĵ":2294,"Ġáī£áĪħáĮī":2295,"ĠáĬ£áĭŃáĬ®":2296,"ĠáĬ£áĭŃáĬŃáĬ¥":2297,"ĠáĬ£áĭŃáĬ¨áĬ£áĪįáĬķ":2298,"áĪŃáĬ¨áī¥":2299,"áĪĻáĬķ":2300,"áĪ½áī°":2301,"áĪ½áī±":2302,"ĠáĬ¥áĪĿáīłáĪŃ":2303,"ĠáĬ¥áĪĿáĬĴ":2304,"ĠáĬ£áįįáĪªáīĥáĭįáĭ«áĬķ":2305,"ĠáĬ¤áĪŃáīµáĪ«áĭĬ":2306,"ĠáĬ£áĪĪáĭĭ":2307,"áĮİáĪĿ":2308,"áĮİáĬĵáĮ¸":2309,"áī¥áĭ¨áīµ":2310,"áĪ¨áĬ½áīłáĪī":2311,"ĠáĪŃáĬŃ":2312,"ĠáĪŃáĭ±":2313,"ĠáĪ¨áĮĬ":2314,"ĠáĭĿáīłáĪĪ":2315,"ĠáĭĿáīłáĪĪáĮ¸":2316,"áĬĸáĪİáĮĤ":2317,"áī£áĪħáĪĭáĭĬ":2318,"ĠáĪµáĬĲáĪĿáĪķáĭ°áĪ«":2319,"ĠáīµáĬ«áĪĭáĭĬ":2320,"áĬªáī¦áĪĿ":2321,"áĬªáĬ¤áĪį":2322,"ĠáįĪáī°áĬĲ":2323,"ĠáĪħáĭĿáī¥":2324,"ĠáĬ¥áĬķáī°áĬ¾áĬĲ":2325,"áĬ¤áĪŃáīµ":2326,"áĬ¥áĪĿáĪĽáĬķ":2327,"ĠáĪ½áĪŃáĪĴáī³áīµ":2328,"ĠáĬ£áĬ«áĭŃáĭ±":2329,"áĭĴáī£":2330,"ĠáĪļáĬĴ":2331,"ĠáĪļáĪįáĭ®áĬķ":2332,"ĠáĪļáĬªáĬ¤áĪį":2333,"Ġáĭ¨áĪ¨áĮĭ":2334,"Ġáĭ¨áĭµáĪĬ":2335,"Ġáĭ¨áĪ¨áĭµ":2336,"ĠáĭĿáĪŃáĬ¨áī£":2337,"ĠáĭĿáĪŃáĬ¨áī¦":2338,"áĪŃáĪĵáĪİáĪĿ":2339,"ĠáĪĺáĪµáĭĭ":2340,"Ġáī¥áīĲáĮ»áĪĬ":2341,"ĠáĬ¨áī£áī¢áĬ¡":2342,"ĠáĬ¨áī£áī¢áĬ¦áĪĿ":2343,"Ġáī°áĪĺáĪµáĮ¦":2344,"ĠáĪµáĭµáĪ«áī¤áīµáĬķ":2345,"ĠáĪµáĭµáĪ«áī¤áī³áĭĬ":2346,"Ġáī¥áīķáĭĵáīµáĬķ":2347,"ĠáĪĿáĪĿáĪ«áĪķ":2348,"ĠáĬŃáīµáĪ°":2349,"ĠáĮīáĪįáīł":2350,"ĠáĮīáĭ³áĭ«áīµ":2351,"ĠáĭĿáĭĪáĪŃáĭµ":2352,"áī³áī¶áĪĿáĬķ":2353,"ĠáĬŃáįįáĪĪ":2354,"áĪĮáĭĽáĬķ":2355,"ĠáĬ£áĪµáī³áīµ":2356,"ĠáĭĿáĬ¸áĭ±":2357,"ĠáĪĺáĭµáĪ¨":2358,"áĪĺáĬķáĮ½áĪŃ":2359,"ĠáīĢáĮ»áĪįáĬĲáī±":2360,"áīĵáĪ²":2361,"áĪŃáĬ¥áĭ©":2362,"ĠáĪĺáĭ°áī£áīµ":2363,"ĠáīĢáĭ³áĪĽáĭŃ":2364,"ĠáĬķáĮ¥áįĪáīµ":2365,"áī°áĭĪáĪ³áĬº":2366,"ĠáĪĿáĬķáĮª":2367,"ĠáĪĿáĬķáĮ»áįį":2368,"áĪĽáĪķáīłáĪ¨":2369,"ĠáĮłáĪĪáī¥":2370,"Ġáī³áĪªáĬ½áĬĵ":2371,"ĠáĭĭáĮĭ":2372,"áĪŃáĭµáĬ¦":2373,"áĪĺáĪŃáī³":2374,"Ġáī°áĪ«áĬķ":2375,"ĠáĮ¸áĮĪáĪĽáīµ":2376,"ĠáĪĺáĮ½áĪĵáįįáī²":2377,"ĠáĭĿáĮįáīłáĪ¨áĪī":2378,"áĬĲáī¶áĪĿáĬķ":2379,"Ġáī¥áĪĵáįĪáĪ»":2380,"Ġáī£áĭ®áĮĭáĭĿ":2381,"ĠáĪħáĭŃáĭĪáī¶áĪĿ":2382,"ĠáĮ½áĪĳáįįáĬķ":2383,"Ġ70":2384,"ĠáĬªáĭ³áĬĲ":2385,"ĠáĬĶáĪ©":2386,"ĠáĪĴáĭĻ":2387,"ĠáĪĴáĭ°áīµ":2388,"ĠáĬ¥áĭ¨áĬķ":2389,"ĠáĪĿáĬ½áĬķáĭ«áīµ":2390,"ĠáĪĿáĬ½áĬ£áĪİáĪĿ":2391,"ĠáĭįáĪĳáĪµáĬķ":2392,"ĠáĭĿáĬĲáīłáĪ©":2393,"ĠáĬ£áĮĪáĭ³áĪ²":2394,"ĠáĬ£áĮĪáĭ³áĪµáĬĲáī±":2395,"áĬķáĭ±áĪµáīµáĪª":2396,"ĠáĭľáĮĭ":2397,"ĠáĭľáĮĭáī³áīµ":2398,"áĪµáĪ«áĪķáĬķ":2399,"ĠáĪĿáįįáī³áĪķ":2400,"ĠáĬķáīķáĪĵáīµ":2401,"ĠáĭŃáĪŃáĬ¨áī¡":2402,"Ġáī¥áĪĿáīµáĪķ":2403,"áĬ»áĬ½áī³":2404,"áī¥áĭĻáĪĵáīµ":2405,"ĠáĭĿáĪĪáīł":2406,"ĠáĪĿáĬŃáĭ«áĭµ":2407,"áĭµáĪķáĪª":2408,"áĬŃáĬ¥áĪį":2409,"ĠáĭĿáī°áĭĵáĭ°":2410,"ĠáĭįáĭµáĭµáĪŃ":2411,"áĬ°áĪ¨":2412,"ĠáĭĽáĪĿáī¥áĭ«":2413,"ĠáĬ£áĪ°áĪ«":2414,"ĠáĬŃáĪ°áĪŃáĪķ":2415,"áĭķáĭµáĪĺ":2416,"ĠáīĨáĪįáĭĳ":2417,"áĪĵáĪ³áĪµáī£":2418,"ĠáĪķáĪĭáĮĪáīµ":2419,"ĠáĪķáĪĭáĮĪáī³áīµ":2420,"Ġáī°áĪĺáĪĥáĪ®áĬķ":2421,"ĠáĪĿáīµáĬ¥áĪµáĪ³áĪŃ":2422,"...":2423,"Ġ800":2424,"áĪĸáĪĿ":2425,"Ġáĭ®áĪ´áįį":2426,"Ġáĭ¶áĬŃáī°áĪŃ":2427,"Ġáī¥áīµáĮįáĪĥ":2428,"ĠáĬ¨áĪ¨áĮĭáĮįáĮ½":2429,"Ġáī°áīłáĮįáĪ¶":2430,"Ġáī°áĪĽáĪĥáĪ®":2431,"Ġáī°áīĲáĭ³áĭ°":2432,"ĠáĪµáĪĿáĭĴ":2433,"áĮ¥áĪĿáĪ¨áīµ":2434,"ĠáĭĿáī°áĬ£áī³":2435,"ĠáĭĿáī°áĬ£áĪ³áĪ°áĪŃ":2436,"áĭĺáĪĪáĭİ":2437,"ĠáĭĪáĪĪáĭ¶":2438,"ĠáĭįáĪ½áĮ¢":2439,"ĠáĪĺáĬķáĮįáĪµ":2440,"ĠáĪĺáĬķáĮįáĪµáī²":2441,"ĠáĭĿáĪĿáĭµáĬĵáī³áīµ":2442,"ĠáĬ¨áĭŃáī°áĪ¨áįĪ":2443,"ĠáĪªáĬ¨áĪŃáĭµ":2444,"ĠáĭĿáĮĪáīłáĪ¨":2445,"ĠáĪĺáĮįáĪĪáĮºáī³áīµ":2446,"Ġáī¥áĭ°áĪ¨áĮĥ":2447,"ĠáĪĿáī¥áīµáī³áĬķ":2448,"ĠáĪĿáīħáĪĭ":2449,"ĠáĬķáĬ¹áĪī":2450,"áįįáīµáĪĴáĬķ":2451,"ĠáĮŃáī¡áĮ¥":2452,"Ġáī°áĮłáīĴ":2453,"ĠáĬ«áĪįáĬ£áĭŃ":2454,"ĠáĬķáĪĿáī¥áĮ»áĪķ":2455,"ĠáĮ½áĭįáĮ½áĭĭáĭŃ":2456,"ĠáĪĺáĮ½áĬĵáĭķáī²":2457,"Ġáī¥áīĲáĪĬáĪī":2458,"ĠáĪĿáīµáī¥áī£áĭķáĬķ":2459,"Ġáī¥áĪįáĮ½áĮįáī²":2460,"ĠáĪĺáĪ»áĪŃáĬ½áī²":2461,"ĠáĭĿáī°áĬ»áĭ¨áĭ°":2462,"áī¥áĭĺáĭŃáĬ«":2463,"áĬķáĪĵáĭµáĪķ":2464,"áĪįáīĢáĪį":2465,"ĠáĪĿáĬ¥áĪĭáĭŃ":2466,"ĠáĭĺáĮĪáĪįáĮįáĪį":2467,"Ġáī°áĬ½áĬ¥áĪİáī³áīµ":2468,"ĠáĪµáĬĴáīµ":2469,"Ġáĭķáĭ³áĮĭ":2470,"ĠáĭĿáī°áĪĺáĪŃáĮ¹":2471,"ĠáĪĽáĭķáĬ¨áĬĵáīµ":2472,"ĠáĭįáĪĳáĭ³áīµ":2473,"ĠáĪĿáĪĿáĪķáī£áĪŃ":2474,"Ġáī°áĭĪáįĭáĭŃáĬĲáīµáĬķ":2475,"ĠáĮłáīķáĪĭáĪĭ":2476,"ĠáĬ¨áī°áĪĽáī³áīµ":2477,"áĬķáĮ¸áī£áĪŃáīķ":2478,"áĬķáīĢáĪ³áīĵáĪ²":2479,"Ġáī´áĬŃáĬĸáĪİáĮĤ":2480,"Ġáī£áĭķáĪĭáī¶áĪĿ":2481,"ĠáĬ£áĪŃáĬ¥áĪµáī²":2482,"ĠáĪĿáī¹áĬ¥":2483,"ĠáĬ£áĮ¸áĮĭáĪļ":2484,"ĠáĭĿáĪĵáīµáīµ":2485,"ĠáĭĿáĪĿáĪµáĮ¥":2486,"ĠáĪĺáĪ«áĪķáī²":2487,"ĠáĪĺáĪ¬áīµ":2488,"Ġáī¥áī¥áīķáĭĵáīµ":2489,"áĪķáī¥áĪ¨áī°áĪ°áī¥":2490,"áĬĵáĭ³áĬ¢":2491,"ĠáĪĿáĪŃáĬ©áĪµ":2492,"áĭµáĮĵáĭµ":2493,"ĠáĭĺáĪĲáī¥áĬķ":2494,"ĠáĭĺáĪŃáĬ¥áĪµáī³":2495,"ĠáĭĵáĪ°áĪŃáī°":2496,"ĠáĪĵáĪĻáĪ½áī°":2497,"ĠáĭķáĭĻáĭĿ":2498,"ĠáĬ«áĬķáī«áĪµ":2499,"ĠáĭŃáĮįáī£áĬ¥":2500,"Ġáī¥áĪĿáĬ¥áī³áĭį":2501,"ĠáĬķáĪĿáĮŃáī£áĮ¥":2502,"ĠáĬ©áĪĪáĬķáīµáĬĵáĭĬ":2503,"ĠáĬ£áĭŃáĬ®áĬĳáĬķ":2504,"Ġáĭ¨áĪ¨áĭµáĬ¥":2505,"Ġáī°áīĲáĭ³áĭ°áĪĿáī²":2506,"16":2507,"19":2508,"26":2509,"27":2510,"59":2511,"?\"":2512,"´áĪį":2513,"»áĪĿ":2514,"¾áĭŃáĬĳ":2515,"Ġ'":2516,"Ġ)":2517,"Ġ-":2518,"Ġ5":2519,"Ġ6":2520,"ĠáīłáĪŃ":2521,"ħáĮįáĬķ":2522,"ĮáĪĭáĬķ":2523,"Ķáī³áīµ":2524,"ĸáī¨":2525,"ĺáĬķ":2526,"áĬµ":2527,"áĭĢ":2528,"áĭ´áĪį":2529,"ĠáĬ¾áĭŃáĬĳ":2530,"ĠáĬĸáī¨":2531,"áĮ¨":2532,"áĮ«":2533,"áĮ³":2534,"áĮĴ":2535,"ĠáĪľ":2536,"ĠáĪ»áĪĿ":2537,"ĠáĪĮáĪĭáĬķ":2538,"áī¥áĪĿ":2539,"áī¥áĪĪ":2540,"áī¥áĮ½":2541,"áī¥áĭ°":2542,"áī¥áĪĥ":2543,"áī¥áĬ¡":2544,"áī¥áĭ©":2545,"áī¥áĪİáĪĿ":2546,"áī¥áĪ±":2547,"áī¥áīĳ":2548,"áī¥áĬ¦áĪĿ":2549,"áī¥áĭĽáĭķáī£":2550,"áī¥áĪ¶áĪĿ":2551,"áī¥áĬ¹áĪĪáĬķáīµáĬĵáĬ¡":2552,"áī¥áĪĺáĬķáĮ½áĪŃ":2553,"áī¥áī°áĭĪáĪ³áĬº":2554,"áĬķáĪĿ":2555,"áĬķáĬ¥":2556,"áĬķáĪ°":2557,"áĬķáĬ£":2558,"áĬķáĬĵ":2559,"áĬķáĮį":2560,"áĬķáĬ½":2561,"áĬķáĭļ":2562,"áĬķáĬ»":2563,"áĬķáĮ¢":2564,"áĬķáīĭ":2565,"áĬķáĪķáĬĵ":2566,"áĬķáĪŀáĭ«":2567,"áĬķáĭ°áĭŃ":2568,"áĬķáĬŃáĪĪ":2569,"áĬķáī¥áĭĻáĪĵáīµ":2570,"ĠáĭĭáĬķ":2571,"áīµáī³áīµ":2572,"áīµáĭ®":2573,"áīµáĭĪáīµ":2574,"áĪĿáī£":2575,"áĪĿáī³":2576,"áĪĿáĮ½":2577,"áĪĿáĪĥ":2578,"áĪĿáĪ³":2579,"áĪĿáĬĲáīµ":2580,"áĪĿáī¥áĪŃ":2581,"áĪĿáĪįáĬ¨áīµ":2582,"áĪĿáĪĿáĪµáĪ«áīµ":2583,"áĪĿáīĪ":2584,"ĠáįĬ":2585,"áĪŃáĪµ":2586,"áĪŃáĮĪ":2587,"áĪŃáĮ½":2588,"áĪŃáĪī":2589,"áĪŃáĪĥ":2590,"áĪŃáĬ¢":2591,"áĪŃáĭĳ":2592,"áĪŃáĭİáĪĿ":2593,"áĪŃáĬº":2594,"áĪŃáĬ°":2595,"áĪŃáĪĸ":2596,"áĪŃáĮ¹áĬķ":2597,"áĪŃáĮĮ":2598,"ĠáĬ£áī£":2599,"ĠáĬ£áīł":2600,"ĠáĬ£áĪī":2601,"ĠáĬ£áĭļ":2602,"ĠáĬ£áīĲ":2603,"ĠáĬ£áī³áĭĬ":2604,"ĠáĬ£áĭ¶":2605,"ĠáĬ£áīµáĪĴ":2606,"ĠáĬ£áĪ¸":2607,"áĪįáī¥":2608,"áĪįáĪį":2609,"áĪįáĪķ":2610,"áĪįáįį":2611,"áĪįáĪī":2612,"áĪįáĭ°":2613,"áĪįáĮ¥":2614,"áĪįáĬĲáīµ":2615,"áĪįáįī":2616,"áĪįáĬł":2617,"áĪįáĪ³áĭŃ":2618,"áĭŃáĭ«":2619,"áĭŃáīķ":2620,"áĭŃáįĪ":2621,"áĭŃáĪĻ":2622,"áĭŃáĭ¶":2623,"áĭŃáĬĵáĬķ":2624,"áĭŃáĭ¶áĪĿ":2625,"ĠáĬ¥áī¥áĪį":2626,"ĠáĬ¥áĮĥáĪĿ":2627,"áĬ¥áĭĽ":2628,"áĬ¥áĪĻ":2629,"ĠáĭĿáĬķ":2630,"ĠáĭĿáĭ°":2631,"ĠáĭĿáĭĽ":2632,"ĠáĭĿáĭµáĪį":2633,"ĠáĭĿáĮĪáī¥":2634,"ĠáĭĿáĮ¥áīĢ":2635,"ĠáĭĿáĪŃáĬł":2636,"ĠáĭĿáĭ°áĪŃ":2637,"ĠáĭĿáįįáĪĪáĮ¥":2638,"ĠáĭĿáĭĿáĪŃáĮĭáĪķ":2639,"ĠáĭĿáĬķáĭįáĪĵ":2640,"áī°áĬ¸":2641,"áī°áĭĽ":2642,"áī°áĪŀ":2643,"áī°áĭŃáĬķ":2644,"áī°áĪĺáĪŃ":2645,"áī°áĭĭáĪħ":2646,"áī£áĭ«áīµ":2647,"áī£áĪįáĬķ":2648,"ĠáĪĺáĬ£":2649,"ĠáĪĺáĪĵ":2650,"ĠáĪĺáīķ":2651,"ĠáĪĺáĭļ":2652,"ĠáĪĺáīĲ":2653,"ĠáĪĺáĪŃáīµ":2654,"ĠáĪĺáĪŃáĪĵ":2655,"ĠáĪĺáĪŃáĬ£":2656,"ĠáĪĺáĪįáĬŃáĭķ":2657,"ĠáĪĺáĭĺáĬĵ":2658,"áī³áĭŃ":2659,"áī³áī²":2660,"áī³áįĮ":2661,"áī³áī°áĬ¸":2662,"áĪĪáĪĽ":2663,"áĪĪáĭį":2664,"áĪĪáī³áĭĬ":2665,"áĪĪáĪµáī°":2666,"áĪĪáĬ»áĬ½áī³":2667,"áĬĲáĬķ":2668,"áĬĲáī³":2669,"áĬĲáī²":2670,"áĬĲáīķ":2671,"áĬĲáī³áī¶áĪĿ":2672,"áĬĲáįįáĪ²áĭĪáĬ¨áįį":2673,"áĬĲáĪ«áĪį":2674,"áĪµáĪµ":2675,"áĪµáĭµ":2676,"áĪµáĪŃáĪĵ":2677,"áĪ°áĪĿ":2678,"áĪ°áĪµ":2679,"áĪ°áĪĽ":2680,"áĪ°áĪī":2681,"áĪ°áĬŃ":2682,"áĪ°áĬĲáīµ":2683,"áĪ°áĮĭáĮĪ":2684,"áĪ°áĬ©áĪĿ":2685,"ĠáĬ¥áĭĪ":2686,"ĠáĬ¥áĭĭ":2687,"ĠáĬ¥áĭĿ":2688,"ĠáĬ¥áĭĺáĬķ":2689,"áĬ£áī°":2690,"áĬ£áĪĪ":2691,"áĬ£áĭµ":2692,"áĬ£áįį":2693,"áĬ£áĭ³":2694,"áĬ£áī¶áĪĿ":2695,"áĬ£áīłáĪŃáĬŃáī¶":2696,"áĬ£áĬŃáĪį":2697,"áĬ£áĮĪáĪįáĮįáĪİ":2698,"áĬ£áĭ«áī³áīµ":2699,"áĬ£áĭ³áĪĪ":2700,"áĬ£áīĥáĭį":2701,"Ġáī¥áī":2702,"Ġáī¥áĬ¥":2703,"Ġáī¥áĪµ":2704,"Ġáī¥áĮ¥":2705,"Ġáī¥áĮ»":2706,"Ġáī¥áĬ¸":2707,"Ġáī¥áĪ½":2708,"Ġáī¥áīĽ":2709,"Ġáī¥áĪµáĬĲ":2710,"Ġáī¥áĬ¨áĪĭ":2711,"Ġáī¥áĪµáĪĪ":2712,"Ġáī¥áĪįáĬŃáĭķ":2713,"Ġáī¥áĭĪáĪĪ":2714,"Ġáī¥áĪŀáĭ«":2715,"Ġáī¥áĭĵáīķ":2716,"Ġáī¥áī¥áĭĿáĪĴ":2717,"Ġáī¥áĬķáĭįáĪĵ":2718,"Ġáī¥áĬ¹áĪĪáĬķáīµáĬĵáĬ¡":2719,"áīłáĪĪ":2720,"áīłáĬĲ":2721,"áīłáĪ«":2722,"áīłáĬĵ":2723,"áīłáĪª":2724,"áīłáĭĵáĪį":2725,"áīłáĭĿáĪĳ":2726,"áīłáĪįáĬ©":2727,"áīłáī³áī°áĬ¸":2728,"áĪ«áĪŃ":2729,"áĪ«áĭį":2730,"áĪ«áĬ½":2731,"áĪ«áĮº":2732,"áĪ«áĬķáĬķ":2733,"áĪķáĪµ":2734,"áĪķáīĢ":2735,"áĪķáĭ«áĪį":2736,"áĪķáĮįáĮĭ":2737,"áĪķáĪŃáĪ»":2738,"áĪķáĪĪáĪį":2739,"áĮĪáĪĪ":2740,"áĮĪáĪµ":2741,"áĮĪáĬĵ":2742,"áĮĪáīłáĪŃ":2743,"áĮĪáĪ²":2744,"áī²áĬķ":2745,"áĬĵáĪħ":2746,"áĬĵáĮĢ":2747,"ĠáĪĿáĬŃáĪį":2748,"ĠáĪĿáĬ¹áĪµáĬ³áĪµ":2749,"ĠáĪĿáī£áĪįáĬķ":2750,"áĭ«áī±":2751,"áĪĭáĮ½":2752,"áĪĭáĪĬ":2753,"áĪĭáĭª":2754,"áĪĭáĭİáĪĿ":2755,"áĪĭáĪµáįĭ":2756,"áĪĭáĮ¥áĬķ":2757,"ĠáĬķáĭĪ":2758,"ĠáĬķáĭĵ":2759,"ĠáĬķáĬ½áĬ¥áĪį":2760,"ĠáĬķáĪĵáĭ°":2761,"ĠáĬķáĭĵáĭŃ":2762,"ĠáĬķáĪĽáĪķáīłáĪ«áĭĬ":2763,"ĠáĬķáĪ½áīķáĪĪáīµ":2764,"ĠáĬķáĪĽáĪķáīłáĪ¨":2765,"áĪ¨áīł":2766,"áĪ¨áĪĵ":2767,"áĪ¨áī¡":2768,"áĪ¨áĬ¸":2769,"áĪ¨áĮįáĮ½":2770,"áĪ¨áĬŃáī°áĪŃ":2771,"áĮįáī¥":2772,"áĮįáĭĿ":2773,"áĮįáĭĳ":2774,"áĮįáįİ":2775,"áĮįáī¡áĬ¥":2776,"áĮįáĬ£áīµ":2777,"áĭµáĪĺ":2778,"áĭµáĪĲ":2779,"áĭµáĪķáĬķ":2780,"áĭµáĪ©áīµ":2781,"ĠáĬ£áī¥áī³":2782,"ĠáĬ£áī¥áī²":2783,"ĠáĬ£áī¥áĪª":2784,"ĠáĬ£áī¥áĬĲáī³áĭĬ":2785,"áĪĺáĪįáĬŃ":2786,"áĪĺáĭŃáī²":2787,"áĪĺáĮ»áĪķáįįáī²":2788,"áĪĺáĪ°áĪ¨áīµ":2789,"áĪĺáī¥áĭĽ":2790,"áĭĬáīµ":2791,"ĠáĬŃáĪķ":2792,"ĠáĬŃáīķ":2793,"ĠáĬŃáįĭ":2794,"ĠáĬŃáĮİ":2795,"ĠáĬŃáī¥áĪī":2796,"ĠáĬŃáĮŃ":2797,"ĠáĬŃáĮįáĪĪáĮ½":2798,"ĠáĬŃáĪ³áī°áįī":2799,"ĠáĬŃáī°áĬ£áī³":2800,"ĠáĬŃáĬ¥áĪĪáīµ":2801,"ĠáĬŃáī¡áĪŃ":2802,"ĠáĬŃáĪŃáĬ¨áī¡":2803,"ĠáĬŃáĭµáĭŃ":2804,"ĠáĬŃáĭĵáī¥áĬķ":2805,"ĠáĬŃáĪŃáĭµáĬ¦":2806,"áĪĽáĪŃ":2807,"áĭķáĪĿ":2808,"áĭķáĪĪ":2809,"áĭķáĪĭáĪĽ":2810,"áįįáī³":2811,"áįįáĪ¨":2812,"áįįáĪī":2813,"áįįáĬ¢":2814,"áĮ½áĪį":2815,"áĮ½áīł":2816,"áĮ½áĪįáĭĭ":2817,"ĠáĭĺáĬ«":2818,"Ġáĭĺáĭĺ":2819,"ĠáĭĺáĬ½áĬ¥":2820,"ĠáĭĺáĭµáĪį":2821,"ĠáĭĺáĪĺáĬķ":2822,"ĠáĭĺáĪ¨áĮĭ":2823,"ĠáĭĺáĬķáīĢ":2824,"ĠáĭĺáĬ½áĬ¥áĪī":2825,"ĠáĭĺáĪµáī°":2826,"ĠáĭĺáĭµáĬķ":2827,"ĠáĭĺáĪ³áīµ":2828,"ĠáĭĺáĭįáĪķ":2829,"ĠáĭĺáĪĽáĪįáĬ¥":2830,"ĠáĭĺáĬķáĮ¸áī£áĪŃáīķ":2831,"áĪħáīµáĬķ":2832,"áĪħáĮ»":2833,"áĪħáĪ³":2834,"áĪħáĪĭáĭĪ":2835,"áĪħáĪµáĪµ":2836,"ĠáĬ¨áĭ³":2837,"ĠáĬ¨áī¢":2838,"ĠáĬ¨áī£áī¥":2839,"ĠáĬ¨áī¥áĪŃ":2840,"ĠáĬ¨áįĭ":2841,"ĠáĬ¨áįĬ":2842,"ĠáĬ¨áĭįáĭķ":2843,"ĠáĬ¨áĪŃáĬ¥áĭ©":2844,"áī³áīµáĬĵáĬķ":2845,"áĭįáī²":2846,"áĭįáĮ½áĬ¢":2847,"áĭĿáĪķ":2848,"áĭĿáĪĽ":2849,"áĭĿáīłáĭĿáĪĳ":2850,"áĪīáĪķ":2851,"áĪīáĮ¥":2852,"áĪĵáĭĿ":2853,"áĪĵáī¶áĪĿ":2854,"áĪĵáī£áĪ«áĭĬ":2855,"áĪĵáĪĭáĪį":2856,"ĠáĮ¨":2857,"ĠáĮĵ":2858,"ĠáĮħáĮįáĬķ":2859,"áĬ½áī±":2860,"áĬ½áī¥áĪ®":2861,"áĪªáĮ¾":2862,"áĪªáĮįáĬĵ":2863,"áĪİáī£áĪį":2864,"áĭ°áĪµ":2865,"áĭ°áĪ°":2866,"áĭ°áĭ°":2867,"áĭ°áī¥áī²":2868,"Ġáī°áĬ¸":2869,"Ġáī°áĪįáĬ¥":2870,"Ġáī°áĮĪáĭ²":2871,"Ġáī°áīĸ":2872,"Ġáī°áĮĮ":2873,"Ġáī°áĬķáīĢáĪ³áīĵáĪ²":2874,"áĭ³áī¥":2875,"áĭ³áĭŃ":2876,"áĭ³áīµáĬķ":2877,"áĭ³áĮĢ":2878,"áĭ³áĭ°áĪŃ":2879,"áĭ³áĪŀáīµ":2880,"áĭ³áĬ£áĬ«":2881,"áīµáĬķáīµ":2882,"áĬ«áĪĭ":2883,"áĬ«áĪįáĬ¦áīµ":2884,"áĬ«áĬ¤áĪį":2885,"ĠáĬĵáīķ":2886,"ĠáĪµáĬ¢":2887,"ĠáĪµáĭĴ":2888,"ĠáĪµáĮįáĬ£áīµ":2889,"áīķáĭĲ":2890,"áĭĪáĬķ":2891,"áĭĪáī³":2892,"áĭĪáĪī":2893,"áĭĪáĭĺáī°":2894,"áĭĪáĪĲáīµ":2895,"áĭĵáī³áīµ":2896,"áĭĵáĪļ":2897,"áĬ¨áĭįáĬķ":2898,"áĬŃáĪ®":2899,"áĬŃáĭĴ":2900,"áĬŃáĬķáĭ²":2901,"áĬŃáĪ³áī¥":2902,"áĬŃáĬĴáĬ«áĭĬ":2903,"áĬŃáĬķáĭ°áĭŃ":2904,"ĠáĭĵáĭŃ":2905,"ĠáĭĵáĭŃáĬĳ":2906,"ĠáĭĵáĭĪáīµ":2907,"ĠáĭĵáĪ»":2908,"ĠáĭĵáĬķáīĢ":2909,"ĠáĭĵáĪŃáĬª":2910,"ĠáĭĵáīĲáĬķ":2911,"ĠáĪĥáĬķ":2912,"ĠáĪĥáĪį":2913,"ĠáĪĥáĬķáīĢ":2914,"ĠáĪĥáī¥áī²":2915,"áĮ¥áĪŃ":2916,"áĮ¥áĭķáĪĿ":2917,"ĠáĪĵáĪĿ":2918,"ĠáĪĵáĭµ":2919,"ĠáĪĵáĮºáĪŃ":2920,"ĠáĪĵáī¢áĪ©":2921,"Ġáĭµáĭ©":2922,"ĠáĭµáĪµáĬ«":2923,"ĠáĭµáĪ©áīµ":2924,"ĠáĭµáĬ³áĬķ":2925,"ĠáĭµáĪŃáĬº":2926,"ĠáĭµáįįáĬ¢":2927,"ĠáīµáĮ½áī¢":2928,"ĠáīµáĮįáĪŃ":2929,"áĪĬáĪķ":2930,"áĪĬáĪ²":2931,"áĪĬáįī":2932,"áĪĬáĪ¶áĪĿ":2933,"áĮ»áĪŃ":2934,"áĮ»áĪļ":2935,"áĮ»áĭĪáīµ":2936,"ĠáĬ¨áĪĿáĭĺ":2937,"ĠáĬ¨áĪĿáĬ¥áīµ":2938,"áįĪáī³áīµ":2939,"áįĪáĪŃáī²":2940,"áįĪáĪīáĬķ":2941,"áĪĥáĪħ":2942,"áĪĥáĪ«áĭŃ":2943,"áĪĥáĪĤ":2944,"áĮĭáĪµ":2945,"áĮĭáĪª":2946,"áĭ¨áĬĵ":2947,"áĭ¨áĪĪáĬķ":2948,"áĪ³áĪĭ":2949,"áĪ³áĪ²":2950,"áĪ³áĪįáĪ³áĭŃ":2951,"Ġáĭķáĭ±":2952,"ĠáĭķáĪĪáī³áĭĬ":2953,"áĪ®áĪĿáĬķ":2954,"áĪ®áĮĢ":2955,"áĪ®áĬĴáĬ«áĭĬ":2956,"áĪ®áĮ³":2957,"ĠáĬ«áĪŃ":2958,"ĠáĭŃáĪŃáĬ£":2959,"ĠáĭŃáĬ½áĬ¥áĪī":2960,"áĭļáĬ¡":2961,"ĠáĪĥáĮĪáĪ®áĪĿ":2962,"ĠáĪĥáĮĪáĪ«áīµáĬķ":2963,"áī¢áĪī":2964,"ĠáĭĿáī°áĮ»áĪķ":2965,"ĠáĭĿáī°áĪ°áĪŃ":2966,"ĠáĭĿáī°áĪĽáĪħ":2967,"ĠáĭĿáī°áīłáĮĪ":2968,"Ġáī¥áĪĿáĪĿ":2969,"Ġáī¥áĪĿáĪŃ":2970,"Ġáī¥áĪĿáĬ½":2971,"Ġáī¥áĪĿáĮī":2972,"Ġáī¥áĪĿáĪįáĬŃ":2973,"Ġáī¥áĪĿáĬķáĮ»":2974,"Ġáī¥áĪĿáĭµáĪĭáĭį":2975,"Ġáī¥áĪĿáīķáĪ«áī¥":2976,"áī±áī¥":2977,"áī±áĭķ":2978,"áĪ©áĭķ":2979,"áĭĺáī¥":2980,"áĭĺáĪŃ":2981,"áĭĺáī¡":2982,"ĠáĬĲáĭ¨":2983,"ĠáĬĲáĮº":2984,"ĠáĬĲáĮ¥áīł":2985,"ĠáĬĲáĭŃáĪ®áĪĿ":2986,"ĠáĬĲáįįáĪ²áĭĪáĬ¨áįį":2987,"ĠáĬĲáĮĪáĪ«áīµ":2988,"ĠáĬĲáĬĵáī±":2989,"ĠáĬķáĪĿáĭµ":2990,"ĠáĬķáĪĿáĭį":2991,"ĠáĬķáĪĿáĭķáī£":2992,"ĠáĬķáĪĿáīħ":2993,"ĠáĬķáĪĿáĪµáįĭ":2994,"ĠáĬķáĪĿáĪµáįį":2995,"ĠáĬķáĪĿáĪĿáĪµáĪ«áīµ":2996,"ĠáĬķáĪĿáĭµáĪĭáĭį":2997,"ĠáĬķáĪĿáĬ¹áĪµáĬ³áĪµ":2998,"ĠáĪĽáĭįáĬķ":2999,"ĠáĪĽáĬĵáĮĢ":3000,"áĭ²áĪ©":3001,"áĪ«áĭĬáīµ":3002,"ĠáĭĪáĪ¨":3003,"ĠáĭĪáĪ°áĬķ":3004,"áī¡áĬķ":3005,"áī¡áĬ£áīµ":3006,"ĠáĪķáĪįáĪĿ":3007,"ĠáĪķáĪĽáīķ":3008,"ĠáĪķáĭ³áĪŃ":3009,"ĠáĪķáĪĿáī¥áĪŃ":3010,"áĬ¡áĪĭáĭį":3011,"ĠáĬ«áī¥áī²":3012,"áĭĭáĪĿ":3013,"áĭĭáĪ³áīµ":3014,"áĭĭáī¶áĪĿáĬķ":3015,"áĮ¸áĮĪ":3016,"ĠáĪĺáĬķáĬ¥áĪ°áĭŃáĬķ":3017,"ĠáīĢáĪĬ":3018,"ĠáīĢáĮ¸":3019,"ĠáīĢáĪ¨áī¥":3020,"ĠáīĢáĪ¨áī£":3021,"ĠáīĢáĪįáīĢáĪį":3022,"áĭĽáĭĬ":3023,"áĭĽáīµáĬķ":3024,"áĭĽáĪ¨áī¥":3025,"áĭĽáĪĺáĭµ":3026,"Ġáīħáĭ±":3027,"ĠáīħáĪįáĮ¡":3028,"ĠáīħáĭĭáĪĿ":3029,"áĬĴáĪķáĬķ":3030,"áĬ¢áĪĭ":3031,"áĬ¢áĪīáĬĴ":3032,"áĬ¢áĬķáĭ±áĪµáīµáĪª":3033,"áĭĳáĪĿ":3034,"ĠáĭįáĪģ":3035,"áĪļáī´":3036,"áĪļáĭµáĬ«":3037,"ĠáĪħáĬķáĮ¸":3038,"ĠáĪħáĪŃáĬ©":3039,"ĠáĪħáĪīáĭį":3040,"ĠáĪħáĭĭáĪ³áīµ":3041,"ĠáĮ¸áĪªáĮįáĬĵ":3042,"áĭ±áĪįáĬķ":3043,"ĠáĪįáī¥":3044,"ĠáĪįáĪĻ":3045,"ĠáĪįáĮĥáĪĿ":3046,"ĠáĪįáĬ¡áĪĭáĭį":3047,"Ġáįįáī³áĪķ":3048,"ĠáįįáĪīáĮ¥":3049,"ĠáĮįáĪĿ":3050,"ĠáĮįáĭµ":3051,"ĠáĮįáĪİáī£áĪį":3052,"ĠáĮįáī¡áĬ£áīµ":3053,"ĠáĭĺáĭŃáĬ¥":3054,"ĠáĭĺáĭŃáĪħáī¥":3055,"ĠáĭĺáĭŃáī¥áĪİáĪĿ":3056,"ĠáĭĺáĭŃáĪķáĪĪáĪį":3057,"áĬ»áīµ":3058,"áĬ»áĪĿ":3059,"áĬ»áĪª":3060,"ĠáĪ°áĬķ":3061,"ĠáĪ°áīł":3062,"ĠáĪ°áĪĻ":3063,"ĠáĪ°áī£áīµ":3064,"ĠáĪ°áĪĭáĪĽ":3065,"ĠáĪ°áĬĵáĭŃ":3066,"ĠáĪ°áĮĬ":3067,"ĠáĪ°áĭŃáįĪ":3068,"ĠáĪ°áĭĵáī³áīµ":3069,"ĠáĪ°áĪ«áĭĬáīµ":3070,"Ġáĭ°áĪŃ":3071,"Ġáĭ°áĬ£":3072,"Ġáĭ°áĪŀáĭĿ":3073,"ĠáĪĿáĪµáĬ£áĪį":3074,"ĠáĬ£áĪİáĬķ":3075,"ĠáĬ£áĪİáĬĵ":3076,"ĠáĬ£áĪİáĬĴ":3077,"áĭįáĬķáĬķ":3078,"áīĢáĪĭ":3079,"áīĢáĬĽ":3080,"áīĢáĪ¨áī¥":3081,"áīĢáĪĿáī²":3082,"áīĢáĭ³áĪŀáīµ":3083,"ĠáĪµáĪ«áĪķáĬķ":3084,"ĠáĮ½áĭĴ":3085,"ĠáĮ½áī¡áīķ":3086,"ĠáĬ®áĪĿ":3087,"ĠáĬ®áĪļáī´":3088,"ĠáĬ¥áĬķáīĭ":3089,"ĠáĬ¥áĬķáĪĵáįį":3090,"ĠáĬ¥áĬķáĮİáĬĵáĮ¸":3091,"áĭķáī£áīµ":3092,"ĠáĮĪáĮ½":3093,"Ġáīłáĭļ":3094,"ĠáīłáīĴ":3095,"ĠáīłáĪĭáĪķ":3096,"ĠáīłáĪĬáĪķ":3097,"áĬ©áĪİáĪĿ":3098,"áĬ©áĬĲáī³áīµ":3099,"áĬ©áĪįáĬĵ":3100,"ĠáĬ¤áĭ°áĬķ":3101,"ĠáĬ¤áĬŃáĪµ":3102,"ĠáĭĺáĪĪáĭĭáĬķ":3103,"áī¥áĪŃáĪĥáĬķ":3104,"ĠáĬ£áįįáĪŃáĭ©":3105,"áĮĪáĪįáĮ¾":3106,"Ġáīħáī¥áĬ£áĬķ":3107,"áįĭáĪķ":3108,"áįĭáīµáĬķ":3109,"áįĭáĪĬ":3110,"ĠáĬ©áĬĲáīµ":3111,"ĠáĬ©áĪĪáĬķ":3112,"ĠáĬ©áī£áĬķáĭ«":3113,"Ġáī£áĪħáĮįáĬĵ":3114,"ĠáĬ£áĭŃáĬĲáīłáĪ¨":3115,"ĠáĬ¥áĬĵáĪĺ":3116,"ĠáĬ¥áĬĵáĭĪ":3117,"ĠáĬ¥áĬĵáĪĥ":3118,"ĠáĬ¥áĬĵáĬ¾áĬĲ":3119,"ĠáĬ¥áĬĵáĬ«áĭ¨":3120,"ĠáĮ¥áĭķáĬĵ":3121,"ĠáĮ¥áĭķáĬĵáĬķ":3122,"ĠáĭĿáĬĲáīłáĪŃ":3123,"ĠáĭĿáĬĲáĭĪáĪĲáīµ":3124,"ĠáĬ¥áĪĿáĬĲ":3125,"ĠáĬ¥áĪĿáī£áīµ":3126,"ĠáĭĺáĪİáĬķ":3127,"ĠáīģáĮłáī£áĬķ":3128,"ĠáīģáĮłáī£áĬĵ":3129,"ĠáĭĵáĪĪáĪĿáĬķ":3130,"áĬ®áĭŃáĬĳ":3131,"ĠáĬ£áįįáĪªáīĥáĬķ":3132,"ĠáĬ£áįįáĪªáīĥáĭĬ":3133,"ĠáĬķáī£áī¥áĬķ":3134,"áĮīáĪŃáī²":3135,"ĠáĪĺáĪ°áĪ¨áī³áĭįáĭ«áĬķ":3136,"ĠáĬ£áĪĪáĭį":3137,"áįĬáĪī":3138,"áįĬáĪ©":3139,"áĭ¶áĪĿáĬķ":3140,"ĠáĪŃáĬ½":3141,"ĠáĪŃáĪĳáīķ":3142,"ĠáĪŃáĪķáīĢ":3143,"Ġáī¥áĭĿáĭ«áĭ³":3144,"Ġáī¥áĭĿáĮĪáīłáĪŃ":3145,"Ġáī¥áĭĿáĮ¥áĭķáĪĿ":3146,"ĠáĪ¨áĬº":3147,"áĮ»áĪķáī²":3148,"áīħáĭķ":3149,"áīħáĭµáĪļ":3150,"áĪŃáĪķáĬķ":3151,"áĪŃáĪķáĬ¡":3152,"áĮĥáī³áīµ":3153,"ĠáĪĪáĭŃ":3154,"ĠáĭĿáīłáĮ½áĪķ":3155,"ĠáĭĿáīłáĭĿáĪĳ":3156,"ĠáĭĿáīłáĭĿáĪķ":3157,"ĠáĭĿáīłáīķáĭĲ":3158,"ĠáĭĺáĪĪáĭİáĪĿáĬķ":3159,"áī£áĪħáĮİáĪĿ":3160,"áĭµáĪįáĭİ":3161,"áĭµáĪįáĭ®":3162,"áĭµáĪįáĭ±áĪį":3163,"ĠáīµáĬ«áĪĭáīµáĬķ":3164,"áĬªáī±":3165,"áĮ£áĭĬ":3166,"áĪĿáĪµáįĭáĪķ":3167,"ĠáįĪáī°":3168,"ĠáįĪáĮº":3169,"ĠáįĪáĮ¢":3170,"ĠáįĪáĬķáĮ¢":3171,"ĠáįĪáĪĭáĪµáįĭ":3172,"ĠáįĪáĮ»áĪļ":3173,"ĠáĬ£áĬķáīłáī¥":3174,"ĠáĬ£áĬķáī£áī¢":3175,"ĠáĪħáĭĿáī£áĭĬ":3176,"ĠáĬ¥áĬķáī°áĮ¸áĬķáĪĲ":3177,"Ġ18":3178,"áĪŃáĮįáī²":3179,"áĬ¥áĪĿáĬĲáīµ":3180,"ĠáĭĿáĪĺáĪįáĬł":3181,"ĠáĭĿáĪĵáīłáĪ¨":3182,"ĠáĭĿáĪĵáĪįáįī":3183,"Ġáī¥áĭĻáĪĵáĬķ":3184,"ĠáĪĿáĪħáĭŀ":3185,"ĠáĪķáī¥áĪ¨áī°áĪ°áī¥áĬķ":3186,"ĠáĪ½áĮį":3187,"ĠáĬ£áĬ«áĭŃáĭ¶áĪĿ":3188,"áĪįáī¦áĬķ":3189,"áĪĵáĭ°áĪŃáī²":3190,"áĬ¨áĪĿáī²":3191,"áĬ¨áĪĿáĬ¡":3192,"áĪĥáĪįáĭ©":3193,"Ġ25":3194,"ĠáĪļáĬ«áĬ¤áĪį":3195,"Ġáĭ¨áĪĺáĪįáĬŃ":3196,"Ġáĭ¨áĪįáī¦áĬķ":3197,"Ġáī£áĪħáĪŃáĬķ":3198,"Ġáī£áĪħáĪŃáĭŃ":3199,"Ġáī£áĪħáĪŃáĭ«áī±":3200,"Ġáī³áĪŃáĮĮ":3201,"Ġáī³áĭ°áĪ°":3202,"áĪ¶áĪŃáĪµ":3203,"áĬłáĬķáĬķ":3204,"ĠáĬ¢áĪįáĬ«":3205,"ĠáĪĺáĬķáĮ¸":3206,"ĠáĪĺáĪµáĪĺáĪŃ":3207,"Ġáī¥áīĲáĬķáĭ±":3208,"Ġáī¥áīĲáĪĬáĪį":3209,"áĭ³áĬ¥áĬķ":3210,"ĠáĪŀáĭ«áī³áīµ":3211,"ĠáĪŀáĬķáĮİ":3212,"áī¥áĪīáĬķ":3213,"ĠáĪĿáĭķáī£áĪĪáĬ¡áĬķ":3214,"ĠáĪĿáīµáĭķáĪŃ":3215,"ĠáĪĿáīµáĪķáĮįáĮĭ":3216,"ĠáĪĿáĪĿáĪĥáĭĿ":3217,"ĠáĬŃáīµáįį":3218,"ĠáĬŃáĪħáī¥":3219,"ĠáĬŃáĪħáĪī":3220,"ĠáĮīáĭµáĮĵáĭµ":3221,"ĠáĭĿáĪĿáĬĲ":3222,"ĠáĭĿáĪĿáĪŃáĬ°":3223,"ĠáĭĿáĭĪáĪ°":3224,"ĠáĭĿáĭĪáĮ¸":3225,"ĠáĭĿáĭĪáĪĥáī¥":3226,"ĠáĭĿáĭĪáĭ°áī¡":3227,"ĠáĭĿáĭĪáĪµáĭµ":3228,"áī£áĭķáĪī":3229,"ĠáĬŃáįįáĮ½áĪĿ":3230,"ĠáĬŃáįįáĮłáĪŃ":3231,"ĠáĬŃáĬ¢áĪİáĪĿ":3232,"ĠáīµáĪķáī°":3233,"ĠáīµáĪķáĭŀ":3234,"áĪĮáī¶áĪĿ":3235,"ĠáĬ£áĪµáĪĺáĪ¨áīµ":3236,"ĠáĭĿáĬ¸áįį":3237,"ĠáĭĿáĬ¸áĬ£áĪĪ":3238,"Ġáī°áĭĪáĪ²":3239,"Ġáī°áĭĪáĪįáĭ°":3240,"ĠáīĢáĮ»áĪįáĬĲáīµ":3241,"ĠáĪĤáī¦áĪĿ":3242,"áĪŃáĬ¥áĭŃáĭİ":3243,"ĠáĭĿáĪ°áįĪ":3244,"ĠáĭĿáĪ°áĭ°áĭ°":3245,"ĠáĪĺáĭ³áĭ«áĭĬ":3246,"ĠáĪĺáĭ³áĪŃáĮįáī²":3247,"áĪĽáĭķáī¥áĪī":3248,"ĠáĭĵáīķáĪĿ":3249,"ĠáĭĵáīķáĪŀáĪĿ":3250,"ĠáīĢáĭ³áĪĿáĬĲáīµ":3251,"ĠáīĢáĭ³áĪĺáĭŃáī²":3252,"áĪĳáĪµáĬķ":3253,"áĪ¬áĬŃáī°áĪŃ":3254,"ĠáĭĿáĭµáĬĲáīķ":3255,"ĠáĭĿáĮ¸áĬķ":3256,"ĠáĭĿáĮ¸áĪī":3257,"áī°áĬ£áĪĽáĬķ":3258,"ĠáĪĿáĬķáīķ":3259,"áĪ¨áĮĭáĮĪ":3260,"ĠáĬŃáī¥áĪª":3261,"Ġáī¦áĪŃáĭµ":3262,"ĠáĮłáĬķáīħ":3263,"ĠáĮłáĬķáīĤ":3264,"ĠáĮłáī£áĭ«áīµ":3265,"ĠáĪįáĪĿáĭĵáīµ":3266,"áĮ¡áī¥":3267,"ĠáĬ£áĭĿáĪĽ":3268,"ĠáĬ£áĮĪáĪįáĮįáĪİáī³áīµ":3269,"Ġáī¥áĭĺáĭŃáĪĿáĪħ":3270,"ĠáīģáĪįáĭķ":3271,"áĭ°áĪ«áĪ²":3272,"ĠáĭµáĪķáĪŃ":3273,"ĠáĮ½áĪįáĭĭáĬķ":3274,"ĠáĪĺáĮ½áĪĵáįī":3275,"áĪŃáĬ£áĭŃ":3276,"ĠáĬ£áĪĺáĪĪáĬ»áĬ½áī³":3277,"ĠáĬ£áĪĺáĪĵáĭ°áĪŃáī²":3278,"ĠáĭĿáĪµáĪŃáĪĵáĪī":3279,"ĠáĭĿáĪµáĪ«áĭķ":3280,"ĠáĭĿáĪķáī³":3281,"ĠáĪĺáĮłáĭŃáīķ":3282,"áĪµáĬĲáī³":3283,"ĠáĬŃáĬķáĭ°áĭŃ":3284,"ĠáĭŃáĬ¹áĬĳ":3285,"Ġáī£áĭŃáĬŃ":3286,"Ġáĭ°áĪ«áĪ²":3287,"Ġáĭ°áĪ«áĬº":3288,"ĠáĮ½áĪĳáįĭáīµáĬķ":3289,"ĠáĭĿáĪĵáĪĪáĭĪ":3290,"ĠáĭĿáĪĵáĪĪáįī":3291,"ĠáĬĶáĭŃáĪ©":3292,"ĠáĬĶáĪŃáĭİáĪĿ":3293,"ĠáĪĴáĭŀáĪĿ":3294,"áĪĿáīµáĭİ":3295,"áĪĿáīµáī¥áī£áĭķ":3296,"áĪĿáīµáĬ¥áĪĿáĪĽáĬķ":3297,"ĠáĬ£áĬ¥áĪĿáĪ®áĬķ":3298,"ĠáĬ£áĬ¥áĪĿáĪ®áĬ¡áĬķ":3299,"ĠáĭĿáĬ£áīµ":3300,"ĠáĭĿáĬ£áĬŃáĪį":3301,"ĠáĭĿáĭįáĪµ":3302,"ĠáĭĿáĭįáĬŃáĪį":3303,"ĠáĭĿáĭįáĪĥáī¥":3304,"ĠáĪĺáĪ³áĪŃáĪķ":3305,"ĠáĪĺáĪ³áĪĪáĮ¥":3306,"áĪ°áĪŃáĪĳ":3307,"ĠáĪĿáĭµáĪª":3308,"ĠáĪĿáĭµáĬ»áĪĿ":3309,"ĠáĪĿáĭµáĮĥáī³áīµ":3310,"ĠáĬķáĭĿáĪŃáĬ¨áī¡":3311,"áĪĺáĪµáĪŃáĪĴ":3312,"ĠáĭĿáĬĲáīłáĪ®áĪĿ":3313,"ĠáĬ£áĮĪáĭ³áĪµáĬĲáīµ":3314,"Ġáī¥áīķáĭĵáīµáĬ«":3315,"ĠáĭľáĬĵ":3316,"áĪŃáĮīáĪķ":3317,"áī³áĪķáĭĺ":3318,"Ġáī¥áīĳáĭĵáīµ":3319,"áīłáĭ¨áĬĵ":3320,"ĠáīĥáĪĪ":3321,"ĠáĮĢáĬĲáĪ«áĪį":3322,"áĬ«áĭ¨áĭ°":3323,"áĬ¨áĪĭáĬ¸":3324,"áĮ¥áīĢáĪĺ":3325,"ĠáĪĿáĭķáīĥáī¥":3326,"Ġáī¦áī³áĬķ":3327,"áĪľáĬ¦áĪĿ":3328,"áĬķáĭįáĪĳáĪµáĬķ":3329,"áĪįáĬ£áĭŃ":3330,"ĠáĭĿáĪħáĪī":3331,"ĠáĭĿáĪħáī¦":3332,"ĠáĭĿáĪħáĪįáĭİ":3333,"ĠáĭĿáĭĵáī¢":3334,"ĠáĭĿáįĪáĪįáĮ¦":3335,"ĠáĭĿáįĪáĪįáĮ¥":3336,"ĠáĪĺáĪĿáĪŃáĪĴ":3337,"ĠáĪĺáĪ°áĮĭáĮĪ":3338,"Ġáī¥áĪįáĭĳáĪį":3339,"ĠáĪĿáĬŃáīµáī³":3340,"Ġáī°áĮĪáĭŃáĪ©":3341,"Ġáī°áĮĪáĬķáĭļ":3342,"ĠáĪµáĪįáĮłáĬĵáī³áīµáĬķ":3343,"Ġáĭĵáĭįáĭ²":3344,"áĪ³áī°áįįáī²":3345,"ĠáĭĿáī°áĭĵáĭĪáī±":3346,"ĠáĬ¥áĬĵáī°áĬ¸":3347,"ĠáĬ¥áĬĵáī°áī£áĪħ":3348,"ĠáĪĿáĭĥáĬķáĬĵ":3349,"ĠáĭķáĭµáĪĺáĬ¦áĪĿ":3350,"Ġ2010":3351,"ĠáĮ¸áĬĴáĪĳáĬķ":3352,"ĠáĪĺáĬĲáī£áī¥áĪ®áĬĵáĬķ":3353,"ĠáĪĵáīłáĪ¬áī³áĬķ":3354,"ĠáĪ¸áĪŀáĬķáī°":3355,"ĠáĪ¸áĭįáĪĥ":3356,"ĠáĪĭáĭķáĪĬ":3357,"ĠáĪĭáĭķáĪĪ":3358,"ĠáĭĽáĭķáī£":3359,"ĠáĬ£áī°áĬ²":3360,"ĠáĬ£áī°áĪĵáĪ³áĪµáī£":3361,"ĠáĬ£áĪ°áĪ®áĪĿ":3362,"ĠáĬ£áĪ°áĬĵáĭ³áĬ¢":3363,"ĠáĬ£áĬ¨áī£áī¥":3364,"ĠáĬ¥áī°áĬķ":3365,"ĠáĭĿáīĲáĪŃáī¥":3366,"Ġáī¥áĪŃáĬ¥áĪ°":3367,"Ġáī¥áĪŃáĪĥ":3368,"Ġáī¥áĪŃáī±áĭķ":3369,"ĠáĪĿáĭįáĪĵáĪµ":3370,"ĠáĬķáĭĺáĪİ":3371,"ĠáĬķáĭĺáĪĪáĭī":3372,"ĠáĬŃáįĪáĮ¥áĪŃ":3373,"áĭķáĭµáĪĭáīµ":3374,"áĮ½áĪķáįĪáīµ":3375,"ĠáĭĺáĪĺáĪįáĬŃáīµ":3376,"ĠáĭĺáĪĺáĭĿáĮĪ":3377,"ĠáīĨáĭŃáĪĻ":3378,"áĪĵáĪ³áī£":3379,"ĠáĪĿáīµáĬ¥áĪµáĪ³áĪ«áīµáĬķ":3380,"ĠáĪħáĭŃáĭĪáīµáĬĵáĬķ":3381,"áī´áĬŃáĬĴáĬ«áĭĬ":3382,"áĮħáĬķ":3383,"ĠáĪ³áĪĭ":3384,"ĠáĪ«áĬ¥áĭª":3385,"ĠáĪ«áĬ¥áĭŃáĬĵ":3386,"ĠáĬ£áĪķáī²áĪĻ":3387,"áĪįáĭįáĭĭ":3388,"áĬ¥áīµáī³áĭį":3389,"ĠáĭĿáįĪáĮ¥áĪ®":3390,"áī°áįĪáĪĭáĪĪáĭ©":3391,"ĠáĪĺáĮ»áĬ¢áĬķ":3392,"áĪµáĪįáĬª":3393,"áĪµáĪįáĮ£":3394,"Ġáī¥áĪķáī¥áĪŃáī³áīµ":3395,"Ġáī¥áĪķáĪįáįĬ":3396,"Ġáī¥áĭķáĪĿáīĪ":3397,"Ġáī¥áĭķáī±áī¥":3398,"Ġáī¥áįįáĪīáĭŃ":3399,"áĮĪáĭ³áĪµáĬĲáīµ":3400,"ĠáĭĺáĪķáĭµáĪ®":3401,"ĠáĬ¨áĪ¨áĮĭáĮįáĮ¹":3402,"Ġáī°áĪŃáĬ¥áĭ©":3403,"áĭĪáĪĪáĭµ":3404,"ĠáĬ¨áĪĿáĭĺáĭŃáĬ®áĬĲ":3405,"ĠáĬ¨áĪĿáĭĺáĭŃáĬŃáĬ¥áĪį":3406,"ĠáĬķáĪĿáįįáī³áĪķ":3407,"ĠáĭĪáĪĪáĭ²":3408,"ĠáĭįáĪ½áĮ£áĭĬ":3409,"ĠáĪħáĮ»áĬĵáīµ":3410,"ĠáĭĺáĭŃáĪĿáĮ¥áīĥ":3411,"ĠáĬ¥áĬķáĬ¨áĪĪáĭī":3412,"ĠáĪµáĬĲáĮ¥áīłáīłáĬĽ":3413,"ĠáĭĿáĪĿáĭµáĬĵ":3414,"áĭĸáī³áīµ":3415,"ĠáĪªáĪ¶áĪŃáĪµ":3416,"ĠáĬ£áĪ¨áĬªáī¦áĪĿ":3417,"áī£áĭ®áĮĭáĭĿ":3418,"ĠáĪĺáĪŃáīłáī¥":3419,"ĠáĪĺáĪŃáĪĺáĪ«":3420,"ĠáĪĺáīłáĮĪáĪ²":3421,"ĠáĪĺáĮİáī°":3422,"ĠáĪĺáĮİáĪ°áĬ©áĪĿ":3423,"Ġáī¥áĬ£áī°":3424,"ĠáĪĿáīħáĭŃáĭ«":3425,"ĠáĬķáĬ£áĪ½áī±":3426,"ĠáĬķáĭķáī¥áĭ¨áīµ":3427,"Ġáĭĺáĭ³áĪĪáĭī":3428,"ĠáĭĺáīķáĪ¨áīł":3429,"ĠáĮŃáĪŃáĪĸ":3430,"áĭ³áĭµáĬ£":3431,"ĠáĪµáĬ¥áĪĬ":3432,"ĠáĪµáĬ¥áĪįáī³áīµ":3433,"áĭĵáī¢áĬ¡":3434,"áĭĵáī¢áĭ±":3435,"ĠáĪĵáĭ«áĪİ":3436,"ĠáĪĵáĭ«áĪįáĬķ":3437,"ĠáĭµáĪĮáīµ":3438,"ĠáĭµáĪĮáīµáĬķ":3439,"ĠáĭŃáĪķáī¥áĪ©":3440,"ĠáĭĿáī°áĪ³áĬ¥áĪĪ":3441,"ĠáĭĿáī°áĪ³áĬ¥áĪĪáīµ":3442,"Ġáī¥áĪĿáĭķáĭĽáī¥":3443,"áĭĭáĪķáĭ²":3444,"ĠáĮĪáĮłáĪ«áīµ":3445,"Ġáī£áĪħáĮĬáĬķ":3446,"ĠáĬ¥áĬĵáĭĵáīłáĭ¨":3447,"ĠáĪµáĬĲáĬ£áĬ¥áĪĿáĪ®áĬķ":3448,"ĠáĬ¥áĬķáī°áĭĺáĭŃáĬ®áĭŃáĬĳ":3449,"ĠáĬŃáįįáĪĬáīµ":3450,"Ġ2006":3451,"áĬ¥áĬķáī°áĬ¾áĬĲ":3452,"áī°áĬ£áī³áī°áĭĪáĪİáĪĿ":3453,"ĠáĪĺáĪ»áĪŃáĬ½áī±":3454,"ĠáĭĿáī°áĬ»áĭ¨áĭ±":3455,"áīĨáĪĿ":3456,"áī¥áī£áĪŃáĬķ":3457,"áĬķáĮĪáĭĽáĬ¥":3458,"áīµáĪķáĭĿáī¶":3459,"ĠáĬ£áĭµáĪĽáĭķ":3460,"ĠáĬ£áĪĽáĬ»áĪª":3461,"ĠáĬ£áĬ½áĬ¢áĪīáĬĴ":3462,"ĠáĬ£áĪĥáĭ±":3463,"ĠáĬ£áĪĥáĭĽáĭĬ":3464,"ĠáĬ£áī¦áī³áīµáĬĵáĬķ":3465,"ĠáĬ£áīķáĪªáī£":3466,"ĠáĭĿáī¥áĪĥáĪį":3467,"ĠáĭĿáĮ¥áĪŃáĬĲ":3468,"ĠáĭĿáĪ¨áĬ½áī¡áĪī":3469,"áī£áĪħáĪŃáĭ«áĭĬ":3470,"ĠáĪĺáĭĵáĪįáīµáĬķ":3471,"áĪµáĭ«áĭįáĭ«áĬķ":3472,"áĬ£áĭįáĪ«":3473,"áĬĵáĮ»áĬķ":3474,"ĠáĪĿáĮįáĪĭáĮ½":3475,"ĠáĬķáĭµáįĬ":3476,"ĠáĬķáīĳáĪĵáīµáĬķ":3477,"ĠáĬ£áī¥áĬĲáī³áĭįáĭ«áĬķáĬķ":3478,"ĠáĬŃáĮįáīłáĪ¨":3479,"ĠáĬŃáĮįáīłáĪ¨áĪī":3480,"ĠáĬ¨áĬ«áĭŃáĭµ":3481,"ĠáīĺáĪįáĭĳ":3482,"ĠáīĺáĪįáĭĳáĬķ":3483,"ĠáĮĮáĪ®áĪĿ":3484,"Ġáī°áĪ°áĬ¨áĪĿáī²":3485,"Ġáī°áĬ£áĪ³áĪ²":3486,"Ġáī°áĭĵáīĤ":3487,"Ġáī°áĮ»áĭĬ":3488,"ĠáĪµáĪįáĮ£":3489,"áĭĪáĪµáĭ±":3490,"ĠáĭĵáĪļáĪĻ":3491,"ĠáĭĵáĪļáīļ":3492,"ĠáĭµáĪįáĭ±áĪįáĬķ":3493,"ĠáĭŃáĪ°áĪŃáĪĵáĪī":3494,"ĠáīĢáī£áĬ¥áī²":3495,"ĠáīħáĪŃáĮº":3496,"Ġáĭįáĭ±áĬķ":3497,"ĠáĮ½áĪŃáĮįáĭ«":3498,"ĠáĮ½áĪŃáĮįáĭ«áī³áīµ":3499,"ĠáĮĪáĪĿáĮĭáĪĽáīµ":3500,"Ġáīłáī¥áĭĵáĭŃáĬĲáī±":3501,"ĠáĮ¥áīłáī£áīµ":3502,"ĠáĮ¥áīłáī£áĭĬ":3503,"ĠáĮ¥áīķáĪļ":3504,"ĠáĮ¥áīķáĪĻáĬķ":3505,"áĮºáĪŃáĬ«":3506,"áĮİáĪįáĮİáĪį":3507,"ĠáĬ¥áĬķáī°áĬ¾áĭŃáĬĳ":3508,"Ġ196":3509,"ĠáĪĺáĬķáįĪáĪµ":3510,"ĠáĬŃáĪħáĪįáĭİáĪĿ":3511,"ĠáĪĿáĭķáĪ«áįį":3512,"ĠáĪĿáĭķáĪ«áįī":3513,"ĠáĭĭáĪĭáĪĵáĬķáī²":3514,"ĠáĪĺáĪ³áĪŃáĪĴáī³áīµáĬķ":3515,"ĠáĮĢáĪļáĪ©":3516,"ĠáĮĢáĪļáĪ®áĪĿ":3517,"ĠáĬķáĪĿáīµáĬ¥áīµáī³áĭį":3518,"Ġáĭĺáī°áī£áī¥áĭķ":3519,"Ġáĭ³áĭŃáĪ¨áĬŃáī°áĪŃ":3520,"Ġáĭ³áĭŃáĪ¬áĬŃáī°áĪŃ":3521,"Ġáī¥áĭµáĪĨáī³áīµ":3522,"Ġáī¥áĭµáĪĨáī³áīµáĬķ":3523,"ĠáĪķáĮ½áĪ¨áī³áīµ":3524,"ĠáįĸáĪĪáī²áĬ«áĭįáĬķ":3525,"ĠáīµáĬķáīł":3526,"ĠáĪ±áĪŃ":3527,"ĠáĪİáĪļ":3528,"áī¥áĪ«áĪħáīµáĬķ":3529,"ĠáĭĴáī£":3530,"áįķáĭ®áĬķ":3531,"ĠáįĭáĭŃáĬĵáĬķ":3532,"ĠáįķáĪ®áĮĢ":3533,"ĠáĬ£áĪ«áī¢":3534,"ĠáĬ£áīĥáĭįáĪĽáĬķ":3535,"ĠáĬ£áĪħáĮīáĪ«áĭĬ":3536,"ĠáĭĿáĬŃáĬ£áĪį":3537,"ĠáĭĿáĮłáĪįáī¥":3538,"áī°áĬ¨áĪĮáĭĽáĬķ":3539,"ĠáĪĺáĮĢáĪĺáĪŃáī³":3540,"ĠáĪĺáĪĥáĭĿáĬĲáīµáĬķ":3541,"ĠáĪĺáĮĵáĭĵáĭĿáĭ«":3542,"áĬĲáī¥áĪ¨áĪĭ":3543,"áĪµáĭµáĪ«áī¤áīµ":3544,"áĪµáīĵáĪ³áīµ":3545,"Ġáī¥áĪ°áįĬáĪĳ":3546,"ĠáĬķáĮįáĭ³áĭĬ":3547,"ĠáĬķáĪ¸áĪŀáĬķáī°":3548,"áĪ¨áĬŃáī¥":3549,"áĮįáĭ°áĪ±":3550,"áĪĺáĭĵáĬĴ":3551,"ĠáĬŃáĭķáĭĺáī¡":3552,"ĠáĬŃáĭ³áĪİ":3553,"ĠáĬŃáī¥áĪŃáī³áīµáĬķ":3554,"ĠáĬŃáĭµáĪįáĭµáĪį":3555,"áĪĵáĪĭáįįáĬĲáīµ":3556,"Ġáī°áĪŀáĬŃáĪ®":3557,"Ġáī°áĭįáĪħáī¦áĬķ":3558,"ĠáīµáĪµáįīáĭį":3559,"áĮ»áĪĽáĬĵ":3560,"áĪĥáĪĥáĭ²":3561,"ĠáĭķáĬķáĭĪáīµ":3562,"Ġáĭķáĭīáīµ":3563,"ĠáĭŃáĮ½áīłáĭ¨áĬĵ":3564,"ĠáĭĿáī°áĭ³áĪĪáĭĪáīµ":3565,"Ġáī¥áĪĿáĬ¥áĬ«áī¥":3566,"Ġáī¥áĪĿáįįáĮ£áĪŃ":3567,"ĠáĬķáĪĿáĭķáĭĭáīµ":3568,"ĠáĬķáĪĿáĮįáī£áĪ«":3569,"ĠáĭĪáįįáĭ®áĪĿ":3570,"ĠáĪķáī¶áī³áīµ":3571,"ĠáīħáĪįáĭįáĪĭáĭįáĬķ":3572,"ĠáįįáĪŃáĭ«áīµ":3573,"ĠáĭĺáĭŃáīµáĪ¨áĬ½áīłáĪī":3574,"Ġáĭ°áĪªáĪ±":3575,"Ġáĭ°áī¡áī¥":3576,"áĬ¾áĬķáĭİáĪĿ":3577,"áīĢáĮ»áĪįáĬĲáī±":3578,"ĠáĬ¥áĬķáĪµáĪ³áī³áīµáĬķ":3579,"ĠáĮĪáĭ²áįį":3580,"ĠáĬ¤áĪĪáĬŃáīµáĪ®áĬĴáĬ«áĭĬ":3581,"ĠáĬ£áĭŃáĬŃáĬ¥áĪįáĬķ":3582,"ĠáĪŃáĬŃáī£áīµ":3583,"ĠáĪŃáĭ±áĬ¥":3584,"ĠáĪ¨áĮĬáĮ½áĬĵ":3585,"áī£áĪħáĪĭáĭĬáĬķ":3586,"áĬ¤áĪŃáīµáĪ«áĭįáĭ«áĬķ":3587,"ĠáĪļáĬĴáĪµáīµáĪª":3588,"Ġáĭ¨áĪ¨áĮĭáĮįáĮ½":3589,"ĠáĪĺáĪµáĭĭáĬ¥áī²":3590,"ĠáĮīáĪįáīłáī³áĭįáĬķ":3591,"ĠáĪĺáĭµáĪ¨áĬ»áīµ":3592,"ĠáĬ£áĪ°áĪ«áĪŃáĪķáĬ¡":3593,"Ġáī¥áīµáĮįáĪĥáīµ":3594,"Ġáī°áĪĽáĪĥáĪ®áĬķ":3595,"ĠáĪµáĪĿáĭĴáīµáĬķ":3596,"ĠáĭĿáī°áĬ£áī³áī°áĭĪáĪİáĪĿ":3597,"ĠáĪĺáĬķáĮįáĪµáīµáĬķ":3598,"Ġáī°áĮłáīĴáĪĻ":3599,"áĬķáĪĵáĭµáĪķáĭ±":3600,"166":3601,"ĠáīłáĪŃáĪĢ":3602,"ĠáĬĸáī¨áĪį":3603,"ĠáĪ»áĪĿáįķáĭ®áĬķ":3604,"áĬķáĬŃáĪĪáī£áīµ":3605,"áĪĿáĮ½áĬ¥":3606,"áĪĿáĪ³áĮ¥":3607,"ĠáĬ£áĪīáī³áĭĬ":3608,"ĠáĬ£áĭļáĭ©":3609,"ĠáĬ£áīĲáĭ²":3610,"ĠáĬ£áĭ¶áĬĵáĭŃ":3611,"ĠáĬ£áīµáĪĴáĭĻ":3612,"ĠáĬ£áĪ¸áĮĭáĪª":3613,"áĬ¥áĪĻáĬĵáīµ":3614,"ĠáĭĿáĭĽáĭĺ":3615,"ĠáĭĿáĭ°áĪŃáįį":3616,"áī°áĪŀáĬ©áĪ®":3617,"ĠáĪĺáĪĵáĪª":3618,"ĠáĪĺáīķáĪŃ":3619,"ĠáĪĺáīĲáĭŃáĪ®":3620,"ĠáĪĺáĪŃáīµáĭĸáī³áīµ":3621,"áĬ£áįįáĪªáīĥ":3622,"áĬ£áĭ«áī³áīµáĬĵáĬķ":3623,"áĬ£áĭ³áĪĪáĭįáī²":3624,"Ġáī¥áĬ¸áĪĺáĭŃ":3625,"Ġáī¥áīĽáĬķáīĭ":3626,"Ġáī¥áĪµáĪĪáīµáĬķ":3627,"Ġáī¥áĭĵáīķáĪŀáĪĿ":3628,"áĪ«áĭįáĬĲáīµ":3629,"áĪķáĪŃáĪ»áĭĬ":3630,"ĠáĪĿáĬŃáĪįáĬ»áĪį":3631,"áĪĺáī¥áĭĽáĪķáīµ":3632,"ĠáĬŃáįĭáĪĭáīµ":3633,"ĠáĬŃáĮİáĭµáĪį":3634,"ĠáĬŃáī°áĬ£áī³áī¶":3635,"ĠáĭĺáĪ³áīµáįį":3636,"áĪħáĮ»áĬĵáīµ":3637,"áĪħáĪ³áĪµ":3638,"ĠáĬ¨áī¢áĭµ":3639,"ĠáĬ¨áī¥áĪŃáĪħ":3640,"áĬ½áī¥áĪ®áīµ":3641,"áĪªáĮ¾áĪĿ":3642,"Ġáī°áĮĮáĪ©":3643,"áĭ³áĮĢáĪµáī°áĪŃ":3644,"ĠáĬĵáīķáįĭ":3645,"ĠáĪĥáĬķáīĢáĭį":3646,"ĠáĭµáĪŃáĬºáīµ":3647,"ĠáīµáĮįáĪŃáĬĽ":3648,"ĠáĭŃáĪŃáĬ£áĭ©":3649,"ĠáĭĿáī°áĮ»áĪķáįī":3650,"ĠáĭĿáī°áĪ°áĪŃáĪĲáīµ":3651,"Ġáī¥áĪĿáĪįáĬŃáī³áīµ":3652,"Ġáī¥áĪĿáĬķáĮ»áįį":3653,"ĠáĬķáĪĿáĭķáī£áĭŃ":3654,"ĠáĬķáĪĿáĪµáįįáĪĳ":3655,"ĠáĪĽáĭįáĬķáī°áĭŃáĬķ":3656,"ĠáĪĽáĬĵáĮĢáĪŃ":3657,"ĠáĪķáĪĿáī¥áĪŃáī²":3658,"Ġáīħáĭ±áĪµ":3659,"ĠáīħáĪįáĮ¡áįįáĬķ":3660,"ĠáĭįáĪģáĭµ":3661,"ĠáĪħáĬķáĮ¸áīµ":3662,"ĠáĪ°áĪĻáĬĵáĭĬ":3663,"ĠáĪ°áĪĭáĪĽáĭĬ":3664,"ĠáĪ°áĬĵáĭŃáīµ":3665,"ĠáĪ°áĮĬáĪ©":3666,"ĠáĬ¥áĬķáīĭáĭķ":3667,"ĠáĬ¥áĬķáĪĵáįįáĪ°áĪīáĬķ":3668,"ĠáĬ¥áĬķáĮİáĬĵáĮ¸áįĪáĪīáĬķ":3669,"ĠáīłáīĴáĭķáĬĵ":3670,"ĠáīłáĪĭáĪķáīµáĬķ":3671,"ĠáĬ¤áĬŃáĪµáįĸ":3672,"ĠáĬ£áĭŃáĬĲáīłáĪ¨áĬķ":3673,"ĠáĬ¥áĬĵáĬ«áĭ¨áĭ±":3674,"ĠáĬ¥áĪĿáī£áīµáĬ«áĪĭ":3675,"ĠáĪŃáĪķáīĢáīµ":3676,"Ġáī¥áĭĿáĮĪáīłáĪŃáĬĵáĭ®":3677,"ĠáįĪáĮ¢áĪ©":3678,"ĠáĪħáĭĿáī£áĭĬáĬķ":3679,"Ġáĭ¨áĪĺáĪįáĬŃáī±":3680,"Ġáī³áĪŃáĮĮáīµ":3681,"ĠáĮłáĬķáīħáī³áīµ":3682,"Ġáī¥áĭĺáĭŃáĪĿáĪħáĪĭáĭī":3683,"ĠáĪĺáĪ³áĪĪáĮ¥áĭ«":3684,"ĠáĪĺáĪ°áĮĭáĮĪáĪª":3685,"Ġáī°áĮĪáĬķáĭļáī¡":3686,"ĠáĬ£áī°áĬ²áĪ©":3687,"ĠáĭĺáĪĺáĪįáĬŃáīµáĭİ":3688,"Ġáī¥áĭķáĪĿáīĪáīµ":3689,"ĠáĬ£áĪ¨áĬªáī¦áĪĿáĬĵ":3690,"ĠáĪĿáīħáĭŃáĭ«áĪŃ":3691,"ĠáĭĿáĮ¥áĪŃáĬĲáįī":3692,"ĠáįĭáĭŃáĬĵáĬķáĪµáĭ«áĭįáĭ«áĬķ":3693,"ĠáįķáĪ®áĮĢáĬŃáīµ":3694,"Ġáī°áĪŀáĬŃáĪ®áĬķ":3695},"merges":["á Ī","á Ĭ","á ī","á ĭ","Ġ áĬ","á Į","Ġ áĪ","áī ¥","áĬ ķ","Ġ áĭ","á į","áī µ","áĪ Ŀ","Ġ áį","Ġáį ¢","áĪ Ń","ĠáĬ £","áĪ į","áĭ Ń","ĠáĬ ¥","áĬ ¥","Ġáĭ Ŀ","áī °","áī £","ĠáĪ ĺ","áī ³","áĪ Ī","áĬ Ĳ","áĪ µ","áĪ °","ĠáĬ¥ áĭ","áĬ £","Ġ áī¥","áī ł","áĪ «","áĪ ķ","áĮ Ī","áī ²","áĬ ĵ","ĠáĪ Ŀ","áĭ «","áĪ ĭ","ĠáĬ ķ","áĪ ¨","áĮ į","áĭ µ","ĠáĬ£ áī¥","áĪ ĺ","áĭ Ĭ","ĠáĬ Ń","áĪ Ľ","áĭ ķ","áį į","áĮ ½","Ġáĭ ĺ","áĪ ħ","ĠáĬ ¨","Ġ áī","áī³ áīµ","áĭ į","áĭ Ŀ","áĪ ī","áĬ¥ áĪ°","áĪ ĵ","áĬķ áĬ¥áĪ°","Ġ áĮ","áĬ ½","ĠáĬ¥áĭ ©","áĪ ª","áĪ İ","ĠáĪĺ áĬķáĬ¥áĪ°","áĭ °","Ġ áī°","áĭ ³","áīµ áĬķ","áĬ «","ĠáĬ ĵ","ĠáĪ µ","áī ķ","áĭ Ī","áī ¶","áĭ ĵ","áĬ ¨","áĬ Ń","Ġáĭ ĵ","ĠáĪ ĥ","áĮ ł","áĮ ¥","ĠáĪ ĵ","Ġáĭ µ","Ġ áīµ","áĪ Ĭ","áĮ »","áĬ£ áī¥","ĠáĬ¨ áĪĿ","áį Ī","áĪ ĥ","áĮ ĭ","áĭ« áīµ","áĭ ¨","áĪ ³","Ġáĭ ķ","ĠáĬĵ áĭŃ","áĪ ®","ĠáĬ «","Ġáĭ Ń","áĭ İ","áĭ ļ","ĠáĪĥ áĮĪ","áī ¢","áĬĲ áīµ","ĠáĭĿ áī°","Ġáī¥ áĪĿ","áī¶ áĪĿ","áī ±","ĠáĬ¥áĭ ļ","Ġ áī£","áĪ ©","áĭ ĺ","ĠáĪĺáĬķáĬ¥áĪ° áĭ«áīµ","ĠáĬ Ĳ","áĬ ĳ","Ġáĭµ áĪĽ","ĠáĬķ áĪĿ","ĠáĪ Ľ","áĪħ áĪŃ","áĭ ²","áĪ« áĭĬ","Ġáĭ Ī","áī ¡","ĠáĪ ķ","áĬ ¡","ĠáĬ« áī¥","áĬ ¸","áĭ ĭ","Ġáį £","áĮ ¸","áĪ« áĪķ","ĠáĪĺáĬķáĬ¥áĪ° áĭŃ","áī£ áī¥","Ġáī Ģ","áĪ ĳ","áĭ Ľ","Ġáī ħ","ĠáĬ¥ áī²","áīł áĪŃ","áĬ Ĵ","áī ĥ","áĬ ¢","áĭ ĳ","Ġáĭ į","áĪ ļ","ĠáĪ ħ","áĭ ®","ĠáĮ ¸","áĪ Ĵ","áī Ĳ","áĭ ±","ĠáĪ į","Ġáį į","Ġ áĮį","áĭ ©","áĪĿ áĪħáĪŃ","áī³ áĭĬ","Ġáĭĺ áĭŃ","áī¥ áĪ¨","áĬ »","ĠáĪ °","Ġáĭ °","ĠáĪĿ áĪµ","ĠáĬ£ áĪİ","áĭį áĬķ","į áĬķ","áĬ ¾","áī¥ áĬ£","ĠáĬ¥áĭ įáĬķ","áī ¦","áī Ģ","ĠáĪµ áĪ«áĪķ","Ġáīµ áĪĿáĪħáĪŃ","Ġ áĮ½","áĪ ŀ","ĠáĬ ®","ĠáĬ¥ áĬķ","áĬ ¦","áĮł áī£","ģ áĮłáī£","áĭķ áī£","Ġ áĮĪ","áī£ áĪŃ","áĪĭ áīµ","áĪ ²","áĪ° áĪ¨","Ġ áīł","áĬ½ áĬ¥","áĬ ©","ĠáĬ ¤","áĪį áĬ¥","Ġáĭĺ áĪĪ","ĠáĪĥáĮĪ áĪŃ","áĭ ĥ","áĭ Ļ","áĮ ¹","áī¥ áĪŃ","áī¥ áĪį","ĠáĬ£ áįį","áĮĪ áĪį","Ġáīħ áī¥áĬ£","áĪ« áīµ","áį ĭ","áĪĪ áīµ","ĠáīµáĪĿáĪħáĪŃ áī²","áĪ Ĳ","áĬ ¹","áĭ ī","ĠáĬ ©","áĪŃ áīµ","Ġáī£ áĪħ","ĠáĬ£ áĭŃ","áīł áĪ¨","áĪĿ áĬķ","áĪŃ áĬ¨","ĠáĬ¥ áĬĵ","ĠáĮ ¥","ĠáĪĥáĮĪ áĪ«áĭĬ","ĠáĪĽ áĪķ","áĪ Ļ","ĠáĭĿ áĬĲ","áĪª áīĥ","Ġ \"","áĪ ½","ĠáĬ¥ áĪĿ","áī£ áīµ","Ġáĭĺ áĪİ","Ġáī ģáĮłáī£","Ġáĭĵ áĪĪ","áĬ ®","áĪĵ áīµ","ĠáĬ£áįį áĪªáīĥ","áĭ« áĬķ","ĠáĬķ áī£áī¥","ĠáĬĵ áī¥","ĠáĬ¤ áĪŃáīµ","áĮ ī","áĭŃ áĬĳ","ĠáĪĺ áĪ°áĪ¨","áĪ° áī¥","áĮį áī£áĪŃ","áĪİ áĪĿ","áĭĵ áīµ","áī¥áĪ¨ áī°","áī Ĥ","ĠáĬ£ áĪĪ","áī³áīµ áĬķ","áĭĳ áĪį","áĪ ±","áĮ º","áĮ İ","áį ī","áĪį áĮł","ĠáĪĵ áĭ°","áĭĺ áĭŃ","ĠáĬ¤áĪŃáīµ áĪ«","áī¥ áĭ¨","áį Ĭ","áĪį áĬķ","áīł áī¥","ĠáĪĿ áĭĥ","ĠáĪķ áī¥áĪ¨áī°","ĠáĭĵáĪĪ áĪĿ","ĭ áĬķ","áī ¤","áĭ ¶","áĬ¥ áĭļ","áĪ¨ áĬ½","áĬ¾ áĬĲ","áī ĳ","ĠáĪ Ń","áĬ¥ áī²","Ġáī¥ áĭĿ","áĪĭ áĪĪ","áįį áī²","ĠáĪ ¨","áī£ áī¢","áĬĲ áīµáĬķ","áĬ« áī¥","áĭĪ áīµ","áĮ» áĪķ","áįĪ áĪĭáĪĪ","áī ħ","áĪŃ áĪķ","áĬĵ áĬķ","ĠáĪĺáĬķáĬ¥áĪ° áĭ«","áĬ¦ áĪĿ","áĬ½áĬ¥ áĪį","áĬ® áĬĲ","áĪ »","áĬ ³","áĮ ĥ","ĠáĪ Ī","ĠáĭĿ áīł","ĠáĪĺ áĮ½","áĭķ áĪĬ","Ġáĭķ áī¥áĭ¨","ĠáĭĺáĪĪ áĭİ","áĬ ĸ","ĠáĬ¥ áī¶áĪĿ","áī£ áĪħ","áĪ« áĭŃ","áĪĭ áĪĽ","áĭµ áĪį","áĪĺ áĬķáĬ¥áĪ°","ĠáĪµ áĬĲ","Ġáīµ áĬ«","ĠáĪĺáĬķáĬ¥áĪ°áĭ« áīµáĬķ","áĬ ª","áĭ ŀ","áĮ £","áĪĿ áĪµ","Ġáį Ī","ĠáĬ£ áĬķ","ĠáĬ¥áĭ ĭáĬķ","áĭµ áĪ«","ĠáĬ¨ áĬ£","áĭį áĭ«áĬķ","áĪ® áĪĿ","áĬ¸ áĭįáĬķ","ĠáĪħ áĭĿ","ĠáĬ¥áĬķ áī°","ĠáĪĽáĪķ áīłáĪŃ","Ġ 1","áĬ ¤","áĪŃ áĮį","áĬ¥ áĪĿ","áĬ¥ áĪµ","ĠáĭĿ áĪĺ","ĠáĭĿ áĪĵ","Ġáī¥ áĭĻ","ĠáĪĿ áĪħ","ĠáĪµ áĪĪ","áĭ¨ áĬĲ","ĠáĭĪ áĭŃ","ĠáĪį áĭĳáĪį","ĠáĪķáī¥áĪ¨áī° áĪ°áī¥","Ġáĭķáī¥áĭ¨ áīµ","ĠáĬ ¸","ĠáĪ ½","ĠáĬ£ áĮĪ","ĠáĬ£ áĬ«","áĪį áī¦","ĠáĪĿ áĭķáī£","áĪĵ áĭ°","ĠáĮ »","áĬ¨ áĪĿ","áĪĥ áĪį","Ġáįį áĪįáĮł","ĠáĬ® áĭŃáĬĳ","ĠáīģáĮłáī£ áĭĬ","áĭµáĪ« áī¤","Ġ 2","áĭ Ĵ","ĠáĪ ļ","áĬķ áĭ«","Ġáĭ ¨","ĠáĭĿ áī¥áĪį","ĠáĭĿ áĪŃáĬ¨","áĪĪ áĬķ","áĬĲ áī³áīµ","ĠáĮ ĭ","áīķ áĪª","Ġáĭĵ áĪĺ","Ġáĭķ áĪĭáĪĽ","ĠáĪĥáĮĪ áĪ«áīµ","ĠáĭĿáī° áįĪáĪĭáĪĪ","Ġáī£ áĪħáĪŃ","áīłáĪŃ áĬŃ","áīłáī¥ áī²","Ġ áī³","áĪ ¶","áĬ ł","ĠáĬ ¢","áĮ ¢","áĬķ áĭ²","áĪŃ áĪĵ","áĪį áĬŃ","áĭŃ áī²","ĠáĪĺ áĬķ","ĠáĪĺ áĪµ","áĬĲ áī±","ĠáĬ¥áĭ ®","ĠáĬ¥áĭ Ľ","áĬ£ áĪŃ","Ġáī¥ áīĲ","áĬĵ áĭŃ","áĬĵ áĮ½","áĪĭ áĭŃ","ĠáĬ¨ áī£áī¢","áĭ³ áĬ¥","ĠáĬĲ áī²","ĠáĮ» áĭķ","áĪ Ĥ","áī Ľ","ĠáĪ ŀ","áī¥ áĪī","áĪ° áĬķ","áīł áĭļ","áĮĪ áĭ²","áĪ¨ áĮĥ","áĪĽ áīµ","áĪª áĬ½","Ġáī° áĪĺ","ĠáĪµ áĭµáĪ«áī¤","Ġáĭķ áĭµ","áĮĪáĪį áĮį","ĠáĬ¸ áĬ£","ĠáĪĿáĭķáī£ áĪĪ","ĠáĮĭ áĭĿ","ĠáĬ¥áĭ® áĪĿ","áĪį áĭĳ","áĭŃ áĭµ","áĬĲ áĭļ","áĬ£ áĪį","Ġáī¥ áīķ","áīł áĬ£áĪŃ","ĠáĪĿ áīµ","ĠáĪĿ áĪĿ","áĭ« áĭĬ","áĭ« áĭ³","ĠáĬŃ áīµ","ĠáĬŃ áĪħ","ĠáĮ ī","áĬ½ áĬķáĭ«","ĠáĮ¥ áĪ«áĭŃ","ĠáĬ¥áĪĿ áīłáĬ£áĪŃ","áĮ»áĪķ áįįáī²","áīłáĪŃáĬŃ áī¶","áĮ Ĭ","áī¥ áĬķ","áĪĿ áĬ½áĬķáĭ«","áĪŃ áĬķ","áĪŃ áī²","áĪŃ áĪĴ","ĠáĬ£ áĪįáī¦","áĪį áĭĭ","ĠáĭĿ áĪĿ","ĠáĭĿ áĭĪ","áī° áĪŃ","áī£ áĭķ","áī³ áī¶áĪĿ","ĠáĪĿ áĭķ","ĠáĬŃ áįį","ĠáĬŃ áĬ¢","áīķ áĪĪáīµ","Ġáīµ áĪķ","áįĪ áĮ¥","Ġáĭķ áĪĽ","ĠáĬ© áĬĲáī³áīµ","Ġáī£áĪħ áĪĬ","ĠáĪĺáĪ°áĪ¨ áīµ","áĬĸ áĪĿ","áĬ¥áĪĿ áĪ®","áĪĿáĬ½áĬķáĭ« áī±","ŀ áī£","áĪ Į","áĭ ª","Ġáĭ ŀáī£","ĠáĬ£ áĪµ","ĠáĬ£ áīłáĪŃáĬŃáī¶","ĠáĭĿ áĬ¸","ĠáĪĺ áĭµ","ĠáĪĺ áĮ»áĪķáįįáī²","áĪĭ áĭĬ","áĪĭ áĭį","ĠáĬķ áĬ½","ĠáĬķ áĮ¥","áĪ¨ áīµ","áĪĺ áĬķ","áĪĽ áĭĬ","Ġáī° áĭĪ","áĭİ áĪĿ","ĠáīĢ áĮ»","ĠáĪ¨ áīĽ","ĠáĬ£áĬķ áīłáī¥áī²","ĠáĪħáĭĿ áī¢","ĠáĪµáĪĪ áĭĿ","ĠáĪ¨áīĽ áĪĴ","áī ĵ","ĠáĪ Ĥ","áĪŃ áĬ¥","ĠáĬ¥ áīµ","ĠáĭĿ áĪ°","ĠáĪĺ áĭ°","ĠáĪĺ áĭ³","áīł áĪ«áĭĬ","áĮĪ áī¥","ĠáĬŃ áĪĪ","áĪĽ áĭķ","áįį áĬķ","ĠáĬ¨ áĭŃ","áĪī áĬķ","áĬ½ áī²","áĬŃ áĪį","Ġáĭĵ áīķ","Ġáĭĵ áī¢","áĮ» áĬ¢","ĠáĬ¨áĪĿ áĭĿ","ĠáĪĽ áĪĪáīµ","áĬ¡ áĬķ","ĠáīĢ áĭ³","áĪĳ áĪµ","áĭĽ áĭķáī£","ĠáĮį áĬķ","ĠáĭĺáĭŃ áĬ®áĬĲ","Ġáĭ° áĪ¨áĮĥ","áĮĪáĪį áĮ½","ĠáĪĺáĪ°áĪ¨ áī³áĭĬ","ĠáĪĿáĭĥ áĬĳ","áī£áĪħ áĪĬ","ĠáĪĿáĪħ áĬĵáĮ½","Ġ2 0","áĮĪáĪįáĮį áĪİ","ĠáĬ£áĪįáī¦ áĬĲáīµ","ĠáĬķáĮ¥ áįĪ","áĪ ¬","áĬ º","áĮ Ģ","áīµ áĬĵ","áĭŃ áĬķ","áĭŃ áĪ©","áĬ¥ áĬķ","ĠáĭĿ áĭµ","ĠáĭĿ áĮ¸","ĠáĭĿ áĬ½áĬ¥áĪį","áī° áĬ£","áī° áĭĪ","ĠáĪĺ áĮĪáĭ²","ĠáĪĿ áĬķ","áĪĭ áĬ¥","áĪĭ áįį","áĪ¨ áĮĭ","áĮį áĪĪ","áĪĺ áĮ½","ĠáĬŃ áī¥","áĪĽ áĪķ","Ġáī ¦","ĠáĮ ł","ĠáĪµ áĪŃ","áĮ¥ áīł","ĠáĬ« áĪįáĬ¥","Ġáī¥áĪĿ áĭĥ","ĠáĬĲ áĭļ","ĠáīĢ áĬķáĭ²","ĠáĪį áĪĿ","áī¥áĪŃ áī³áīµ","Ġáī¥áĭĻ áĪĵáīµ","Ġáī³ áĪªáĬ½","Ķ áīµ","áī ģáĮłáī£","áĮ ¡","Ġáĭ ĭ","áīµ áī³","áīµ áĪĴ","áĪŃ áĭµ","ĠáĬ£ áĭĿ","ĠáĬ£ áĮĪáĪįáĮįáĪİ","áĪį áĬ¦","áĭŃ áĬĲáīµ","áī£ áĪį","Ġáī¥ áĭĺáĭŃ","Ġáī¥ áĭĽáĭķáī£","áĪķ áĬķ","áĮį áī£","áĪĺ áĪŃ","áĪĽ áĬķ","áįį áĪĭáĭŃ","ĠáĬ¨ áī°","Ġáī ģ","áĭ° áĪ«","Ġáī° áĪ«","áĭĵ áĪĪ","áĬ¨ áĪį","ĠáĪĥ áĭŃ","Ġáĭµ áĪķ","áĪĥ áĮĪ","ĠáĬķáĪĿ áĮįáī£áĪŃ","ĠáĮ¸ áĮĪ","ĠáĪ° áī¥","áĬ¾ áĬĳ","ĠáĮ½ áĪįáĭĭ","ĠáĪĺáĮ½ áĪĵ","áĪĺáĬķáĬ¥áĪ° áĭŃ","áĪĺáĬķáĬ¥áĪ° áĭ«áīµ","ĠáįįáĪįáĮł áīµ","ĠáĭĵáĪĺ áī³áīµ","ĠáĮ»áĭķ áĪª","ĠáĪĺáĭµ áĪ¨áĬ½","áĪ Ķáīµ","áĮ ĵ","áĮ Ń","áĬķ áĮ¸","áĬķ áī£áī¥","áĬķ áīĢ","áĪŃ áĬ£","ĠáĬ£ áĪĺ","áĪį áĭİ","áĬ¥ áĬ¨áĪį","ĠáĭĿ áĪµ","ĠáĭĿ áĪķ","ĠáĭĿ áĮį","ĠáĭĿ áĭ«áĭ³","ĠáĪĺ áĮł","ĠáĪĺ áĪįáĬ¥","áĬĲ áī¶áĪĿ","áĪµ áĬĲ","áĪµ áī²","Ġáī¥ áĮį","Ġáī¥ áĪĵ","áīł áĭ¨áĬĲ","áĮĪ áĪŃ","áĬĵ áīµ","áĭ« áĪį","áĭ« áī°","áĮį áĬķ","áĮį áĮ½","ĠáĬ£áī¥ áĭ«áī°","ĠáĬŃ áĬķ","ĠáĬŃ áĬ¸áĭįáĬķ","áĭķ áĪŃ","áĮ½ áī¢","áĮ½ áĬĲáīµ","Ġáī ´","áĬŃ áī°áĪŃ","ĠáĬ¨áĪĿ áĬ¡","ĠáĭŃ áĬ¹","Ġáī£ áĭŃ","Ġáī£ áĭ®","ĠáĪħ áĭŃ","ĠáĮ¸ áĭĵáīµ","Ġáįį áīķáĪª","Ġáĭ° áĪ«","áī¦ áĪĿ","ĠáĮ½ áĪĳ","Ġáīł áĭ¨áĬĲ","ĠáĬ£áĪĪ áĭİ","ĠáīµáĬ« áĪĭáīµ","áĭŀ áĪĿ","ĠáĭĿáĪĵ áĪĪ","ĠáĪ½ áīķáĪĪáīµ","áĪ¶ áĪĿ","áĪįáĭĳ áĬķ","áīģáĮłáī£ áĭĬ","áĪįáĬ¦ áīµ","ĠáĪĥáĭŃ áĪĪ","áĪĥáĮĪ áĪ«áĭĬ","Ġ 7","ĠáĬ ª","ĠáĬ Ķ","áĮ ¾","ĠáĪ Ĵ","áĬķ áĬķ","áĪĿ áīµ","áĪŃ áĮĭ","ĠáĬ£ áĬ¥áĪĿáĪ®","ĠáĬ¥ áĬ³","áĬ¥ áĪĪ","áĬ¥ áī³áĭĬ","ĠáĭĿ áĬ£","ĠáĭĿ áĭį","áī° áĬĲ","áī£ áĭĬ","áī£ áīµáĬķ","áī£ áĪĭáīµ","ĠáĪĺ áĪ³","áĪµ áįĭ","áĪ° áĪŃ","ĠáĬ¥áĭ ¨","Ġáī¥ áĪī","áīł áĪī","áĬĵ áĭĬ","áĬĵ áī³áīµ","ĠáĪĿ áĭµ","ĠáĪĿ áĬ½","áĭ« áī³áīµ","ĠáĬķ áĭĿ","áĮį áĮĭ","áĪĺ áī°","áĪĺ áĪµ","áĭķ áĬķ","ĠáĬĵ áĮ½áĬĲáīµ","áĬ¨ áĬ£áĪį","áĪĥ áĪ®","áĮĭ áī³áīµ","áĪ³ áī¥","áī± áĬķ","Ġáī£ áĭķ","ĠáĪĽ áĬ¥áĬ¨áĪį","Ġáĭį áĪĳáĪµ","áĭ® áĪĿ","ĠáĮ¸ áĬĴ","ĠáĪį áĭķáĪĬ","áĬ½áĬ¥ áĪī","ĠáĬ© áĪī","ĠáĬ£áĭŃ áĬ®áĬĲ","ĠáĭĿáĬĲ áīł","ĠáĭĿáĬĲ áīłáĪ¨","ĠáĪŃ áĬ¥","ĠáĪĪ áĭŃáī²","áĪŃáĮį áĮĭ","ĠáĬ£áĮĪ áĭ³","ĠáĭĿáī°áįĪáĪĭáĪĪ áĭ©","áĭ³áĬ¥ áī³","Ġáī¥áīķ áĭĵáīµ","ĠáĪµáĪĪáĭĿ áĬ¾áĬĲ","ĠáĪĺáĭ° áī¥","ĠáĬķáĮ¥áįĪ áī³áīµ","ĠáĪĺáĪįáĬ¥ áĬ½áī²","ĠáĬ£áĭŃáĬ®áĬĲ áĬķ","áĬ Ľ","áī ĭ","áī Ĵ","áĮ ¦","áī¥ áĭĿ","áĬķ áĭ±","áĬķ áĪĲ","Ġáĭ ľ","áĪŃ áĮī","áĪŃ áĪ»","áĪį áī°","áĭŃ áĭ±","ĠáĭĿ áĬ¾áĬĲ","áī£ áĪ«áĭĬ","ĠáĪĺ áĬĲ","ĠáĪĺ áĪª","ĠáĪĺ áĪĭáĬ¥","áī³ áĪķ","áĪĪ áĮ¥","áĪĪ áĭī","áĪµ áīµ","áĪµ áįį","áĪµ áĪ«áĪķ","Ġáī¥ áĪĺ","Ġáī¥ áīĳ","áīł áĭ¨","áĮĪ áī¥áĪ¨","ĠáĪĿ áįį","ĠáĪĿ áĮįáī£áĪŃ","ĠáĬķ áīķ","áĪ¨ áī¥","áĭµ áĪĬ","áĪĽ áĪĺáī°","Ġáī ĥ","Ġáī Ī","áĭį áĪĲ","áĭĿ áī¶","ĠáĮ Ģ","ĠáĮ İ","áĬ« áĭĬ","áĬ« áĭ¨","áĭĵ áĪį","áĬ¨ áĪĭ","áĮ¥ áīĢ","ĠáĪĵ áīł","áĪ³ áĬĴ","ĠáĭŃ áĪŃáĬ¨","Ġáī¥áĪĿ áīµ","ĠáĬĲ áī¶áĪĿ","ĠáĬķáĪĿ áīµ","ĠáĭĪ áĪ³áĬĴ","áĬ» áĬ½","ĠáĭĿáĬĲ áĭįáĪĲ","áĪ¨áĬ½ áī¡","ĠáĪĪ áĭį","ĠáĭĿáĪĺ áĮ¹","ĠáĬ£áĮĪ áī£áī¥","ĠáĭĿáī°áįĪáĪĭáĪĪ áĭ¨","ĠáĪµáĭµáĪ«áī¤ áīµ","ĠáĪĿáĭķ áīĥ","ĠáīĢáĮ» áĪĬ","ĠáĪĺáĭ³ áĭŃ","Ġáĭĵáīķ áĪļ","Ġáī¦ áī³","ĠáĬ£áĮĪáĪįáĮįáĪİ áīµ","ĠáĭŃáĬ¹ áĬķ","Ġáī£áĭŃ áī³","áĪŃáĮįáĮĭ áĮ½","áĪĽáĪĺáī° áĬ¤","Ġ (","áĪ ¸","áĪ ľ","áī¥ áĪĺ","áī¥ áĭĻ","áī¥ áī£áĭķ","áĬķ áī²","áĬķ áĭį","áĬķ áĮ»","áį İ","ĠáĬ£ áĪŃ","áĪį áĬ£","áĪį áĬĵ","áĪį áĬ«","áĪį áĬ¨","áĬ¥ áī¶áĪĿ","ĠáĭĿ áĪĪ","ĠáĭĿ áĪħ","ĠáĭĿ áĭĵ","ĠáĭĿ áįĪ","áī° áĬ«","ĠáĪĺ áĪĿ","ĠáĪĺ áĪ°","áĪµ áī°","áĪµ áĬ³","ĠáĬ¥áĭ «","Ġáī¥ áĪį","áĪķ áĭ°áĪ«","ĠáĪĿ áĬŃ","áĪĭ áĮĪ","áĪĭ áīµáĬķ","áĮį áĭĵ","áĭµ áĬķ","áĭµ áĪķ","áĭµ áĪļ","áĪĺ áĭŃ","ĠáĬŃ áĬ¸","ĠáĬŃ áĪįáī°","áĪĽ áĭŃ","áĮ½ áĪĳ","áĮ½ áĬ¢","Ġáĭĺ áī°","Ġáĭĺ áĭ¨","Ġáī° áĮĪ","áĭ³ áĭĬ","áĬ« áĬķ","ĠáĪµ áĪįáĮł","áĭĵ áĭŃ","áĬŃ áīµ","áĬŃ áĬ¥","Ġáĭĵ áĭį","Ġáĭĵ áĭŃáĬĲáīµ","áĮł áīķ","ĠáĪĵ áīĤ","áĪĥ áī¥","áĪ³ áīµ","áĪ³ áī°","ĠáĭĿáī° áĭĵ","áī¡ áĬ¥","áī£áī¥ áĪ®","áĭĽ áĬ¥","Ġáĭį áĪį","Ġáĭį áĭµ","ĠáĮį áĬĵ","ĠáĪ° áįĬ","ĠáĬ® áĭŃ","ĠáĬ® áĪĽáĭĬ","áĬ© áĪī","áįĭ áīµ","ĠáīµáĪĿáĪħáĪŃáī² áĬķ","ĠáĬ¥áĬĵ áī°","ĠáĪĽáĪķ áīłáĪ«áĭĬ","ĠáĪĿáĭĥ áĬķ","áĭ¶ áĪĿ","ĠáīµáĬ« áĪį","áĬ¥áĪµ áĪ³","ĠáĬ£áĬ« áĪĭáīµ","ĠáįįáĪįáĮł áīµáĬķ","ĠáĪļ áĬ¥áī³áĭĬ","Ġáī£áĪħáĪŃ áĭ«áīµ","áĪŃáĪĵ áĪī","ĠáĪĺáĪµ áĪŃáĪķ","Ġáĭķáĭµ áĪĺ","ĠáĬŃáĬ¢ áĪĭ","ĠáĭķáĪĽ áĪĿ","ĠáĪ¨áīĽáĪĴ áī³áīµ","Ġ20 1","áĪ¬ áī³","ĠáĭĿáĭµ áĪĪ","ĠáĭµáĪķ áĪª","ĠáĪĺáĮł áĬķ","áĮ½áī¢ áīµ","Ġáī¥áĪī áĮ½","ĠáĮ¸áĬĴ áĪĳ","ĠáĪĺáĬĲ áī£áī¥áĪ®","ĠáīĪ áĪįáĭĳáĬķ","ĠáĪĵáīł áĪ¬áī³","ĠáĪĪáĭį áĮ¢","áĪµáĬ³ áĪµ","Ĭ áĬĲ","ŀ áĪĿ","áĬ °","áĭ ľ","ĠáĬ ¹","ĠáĪ ¸","ĠáĪ ĭ","áī¥ áĮ»","Ġáĭ ³","Ġáĭ Ľ","Ġáį ¡","Ġáį ĸ","áĪŃ áĬł","ĠáĬ£ áī°","ĠáĬ£ áĪ°","ĠáĬ£ áī¶","ĠáĬ£ áĬ¨","ĠáĬ£ áĮĭ","ĠáĬ£ áī£áĪĭáīµ","ĠáĬ¥ áī°","ĠáĭĿ áīĲ","ĠáĭĿ áĬ¸áĭįáĬķ","áī£ áĪĤ","ĠáĪĺ áĪĪ","áĪĪ áĭª","áĬĲ áī³áĭĬ","áĪµ áĪĪ","áĪµ áĬĲáīµ","ĠáĬ¥áĭ ŀáĪĿ","áĬ£ áĬķ","áĬ£ áīµ","Ġáī¥ áĪŃ","ĠáĪĿ áĭį","áĪĭ áĪį","áĪĭ áĭķáĪĬ","ĠáĬķ áĪĺ","ĠáĬķ áĭĺ","ĠáĬķ áĪĭáĭķáĪĬ","áĪ¨ áī£","áĪĺ áĪ°","áĪĺ áĪ«","áĪĺ áĪ¨áīµ","ĠáĬŃ áĪ°","ĠáĬŃ áīł","ĠáĬŃ áįĪáĮ¥","áĭķ áĭµ","áįį áĪ²","áĮ½ áĪķ","Ġáĭĺ áĪĺ","áĪħ áĭĿ","ĠáĬ¨ áĪİ","Ġáī Ĩ","áĪĵ áīµáĬķ","áĪĵ áĪ³","ĠáĮ ĬáĬĲ","áĭ° áĪŃ","Ġáī° áī£áĪĤ","áĭ³ áĪĪ","áĭĪ áĬ¨","áĭĪ áī¶áĪĿ","Ġáĭĵ áĭ²","ĠáĪĵ áĪĭáįį","áĪĬ áĪį","áįĪ áīµ","áĮĭ áĮĪ","Ġáī¥áĪĿ áĮįáī£áĪŃ","ĠáĪķ áĪĭáĮĪ","áĭĽ áī¥","áīĥ áĭĬ","áĭ® áĬķ","ĠáĮį áĭ°","ĠáĮį áĭľ","áĪŀ áīµ","áĪ°áĪ¨ áīµ","ĠáĭĺáĪĪ áĭī","ĠáĪĥáĮĪáĪŃ áĬķ","áĮĪáĪį áĮ¹","ĠáĭĺáĪĪáĭİ áĪĿ","áĮ£ áĪļ","áĬ¤ áĪį","Ġáī¥áĭĻ áĪķ","áĪĪáĬķ áīµáĬĵ","ĠáĭĵáĪĺ áīµ","áĪįáĬŃ áĭķ","Ġáī°áĪĺ áĪĥáĪ®","Ġáĭķáĭµ áĪĭáīµ","ĠáĪĿáīµ áĬ¥áĪµáĪ³","ĠáĭķáĪĽ áĪĽáīµ","ĠáĭĿáĬ¸ áĭŃáĭµ","ĠáĬŃáĪĪ áī£áīµ","ĠáĬ£áĭĿ áĭ©","ĠáĪħáĭŃ áĭĪáīµ","Ġáĭ°áĪ« áįį","ĠáĭĿáĪĵáĪĪ áįĪ","áĮįáĮĭ áĪŃ","áĪįáĬ¨ áīµ","áī°áĬ« áĬ¢","áĮįáĭĵ áĭĬ","ĠáĭįáĪį áīĥáĭĬ","ĠáĮĬáĬĲ áĪµ",". .","« áĬ¥","Ġ 8","áĪ Ĩ","áĪ ĸ","áī ´","áĭ Ĥ","áĮ ħ","ĠáĪ ³","ĠáĪ «áĬ¥","áī¥ áī²","áī¥ áĪĵ","áī¥ áĪ©","áī¥ áĬ»","Ġáĭ ®","Ġáĭ ¶","áīµ áĪĿáĪħáĪŃ","áĪĿ áī²","áĪŃ áĭİ","ĠáĬ£ áĪķ","ĠáĬ£ áĭĪ","áĪį áī³áīµ","áĪį áĭį","áĪį áĭķáĪĬ","ĠáĬ¥ áī³","áĬ¥ áī³","áĬ¥ áīµáī³","ĠáĭĿ áįĪáĮ¥","áī° áįĪáĪĭáĪĪ","ĠáĪĺ áĮ»áĬ¢","áī³ áĭįáĭ«áĬķ","áĪĪ áī²","áĪĪ áĮ¸","áĪµ áĬķ","áĪµ áĪį","áĪµ áĮĭ","áĬ£ áĪįáĬķ","áĬ£ áĬ¥áĪĿáĪ®","Ġáī¥ áīµ","Ġáī¥ áĪķ","Ġáī¥ áĭµ","Ġáī¥ áĭķ","Ġáī¥ áįį","áĪ« áĬ¥","áĪ« áīµáĬķ","áĪķ áĬĵ","áĮĪ áĭ³","áĬĵ áīµáĬķ","ĠáĪĿ áī","áĪĭ áĭĪ","áĪ¨ áĪµ","áĮį áĬĵ","ĠáĬ£áī¥ áĬĲáīµ","ĠáĬŃ áī¥áĪ¨","áĪĽ áĪħ","áĪĽ áīµáĬķ","áĭķ áĭŀ","áįį áĪĪáĮ¥","Ġáĭĺ áĪķ","ĠáĬ¨ áĬĲ","ĠáĬ¨ áĪ¨áĮĭ","áĭĿ áĬķ","áĭĿ áĮĪáī¥","áĭĿ áĪŃáĮĭ","áĭ° áīµ","áĭ° áĬĵ","Ġáī° áīł","Ġáī° áĪĽ","Ġáī° áīĲ","Ġáī° áĪŃáĬ¥","Ġáī° áī°áĬ«áĬ¢","áĭ³ áīµ","ĠáĬĵ áĮ»","ĠáĪµ áĪĿ","áĭĪ áĪį","áĭĪ áĪĪ","áĭĵ áīµáĬķ","áĮ¥ áĬķ","áĮ¥ áĪĿ","ĠáĪĵ áĪ³","ĠáĪĵ áĭ«áĪį","ĠáĪĵ áī£áĪ«áĭĬ","Ġáīµ áĪŃáĮī","ĠáĬ¨áĪĿ áĭĺáĭŃ","áĪĥ áĬķ","áĪĥ áĭĿ","áĪĥ áĪĽáĪĺáī°áĬ¤","Ġáĭķ áĭ®","ĠáĭŃ áī¥áĪį","ĠáĭŃ áĬ½áĬ¥áĪį","ĠáĭĿáī° áĪ°","ĠáĭĿáī° áĬ£","ĠáĭĿáī° áĮĪáī¥áĪ¨","ĠáĭĿáī° áĮłáīķ","áī¶áĪĿ áĬķ","áĭĺ áī°","áĭĺ áĪĪ","áĭĺ áĪ®","ĠáĬĲ áĮĪáĪŃ","ĠáĬķáĪĿ áįį","ĠáĭĪ áĪĪ","ĠáĭĪ áĮĪ","ĠáĭĪ áĮ»áĬ¢","ĠáĭĪ áĮįáĭĵáĭĬ","Ġáĭį áĪ½","Ġáĭį áĮ½áĬ¢","ĠáĪħ áĮ»","ĠáĮ¸ áī¥áĮ»","ĠáĭĺáĭŃ áĪĿ","Ġáĭ° áīĤ","ĠáĪĿáĪµ áĮįáĮĭáĪŃ","áĪŀ áĪĿ","ĠáĬ¥áĬķ áĬ¨","áĬ© áĪĿ","ĠáĬ¥áĪĿ áĬĲáīµ","ĠáĬ£áĪĪ áĭī","áĪ± áĬķ","ĠáĬ¤áĪŃáīµáĪ« áĭįáĭ«áĬķ","ĠáĭĵáĪĪáĪĿ áĬĵ","ĠáĭĿáīł áĪĥáĪį","ĠáĪĺáĮ½ áĪĶáīµ","ĠáĪµáĬĲ áĮ¥áīł","áĪĿáĪµ áĪ«áīµ","Ġáī£áĪħáĪŃ áĭ«áĭĬ","ĠáĪĺáĬķ áĮį","ĠáĬ¨áī£áī¢ áī³áīµ","ĠáĪŀ áĭ«áĬķ","áĪ°áĬķ áĬª","áĪŃáĪĴ áī³áīµ","ĠáĭĿáĪĿ áĭµ","ĠáīµáĪķ áī²","ĠáīµáĪķ áĭĿáī¶","Ġáĭŀáī£ áī³áīµ","ĠáĬŃáĪĪ áī¥","áĪĽáĭķ áĪ¨","ĠáĬ¨áĭŃ áī°","ĠáĭĿáĮ¸ áĬķáĪĲ","áĮįáĪĪ áĮ½","áĮįáĪĪ áĮº","áĪĺáĮ½ áĬ¥","áĪĽáĪķ áīłáĪ«áĭĬ","ĠáĪµáĪŃ áĪĵáīµ","ĠáĪĺáĮ½áĪĵ áįį","Ġáī¥áĮį áī¡áĬ¥","Ġáī´ áĪĽ","áĬ¥áĪĪ áīµáĬķ","ĠáĭĿáĬ£ áĪĺáĪ°","Ġáī¥áīĳ áĭķ","Ġáīĥ áĪį","ĠáĭŃáĪŃáĬ¨ áī¥","áĬ»áĬ½ áĪŃ","ĠáĪĿáĭķáīĥ áĬķ","áĪ³áī° áįī","ĠáĪ°áįĬ áĪķ","ĠáĬ®áĭŃ áĬĸáĪĿ","ĠáĬ£áĮĭ áĮ£áĪļ","ĠáĪĺáĪĪ áĪĪáĭª","áĪħáĭĿ áī¢","áĭĪáĬ¨ áįį","áīµáĪĿáĪħáĪŃ áī²","áĭĿáĪŃáĮĭ áĪķ","Ġ 3","áĪ ģ","áī ĸ","áĭ ĸ","áĮ Ĥ","ĠáĪ ª","áī¥ áĪª","áī¥ áįįáĪĭáĭŃ","áī¥ áĬ¨áĪĭ","áĬķ áī°","áĬķ áĬĲ","Ġáĭ ĳ","áį ĸ","áĪĿ áĭ²","áĪĿ áĪķáĭ°áĪ«","áĪŃ áĬĵ","áĪŃ áĬ©","áĪŃ áĭ³áĬ¥","ĠáĬ£ áĪ¨","áĪį áĬĲáī±","áĪį áĮ¦","áĪį áĪµáįį","áĭŃ áĬĵ","áĭŃ áī¶","áĭŃ áĬĲáīµáĬķ","áĭŃ áĪ®áĪĿ","ĠáĭĿ áĮĪ","ĠáĭĿ áĮ½","áī£ áĪª","áī£ áĭ®","ĠáĪĺ áĪŃ","ĠáĪĺ áīł","ĠáĪĺ áĪ¨","ĠáĪĺ áĭĪ","ĠáĪĺ áĮİ","ĠáĪĺ áĪ»","ĠáĪĺ áĭĿáĮĪáī¥","ĠáĪĺ áĮįáĪĪáĮº","áī³ áĪĿ","áī³ áĭįáĬķ","áĬĲ áĭĬ","áĪµ áĪĿ","áĪµ áĬ«","áĪ° áī£áīµ","Ġáī¥ áĬ£","Ġáī¥ áĭį","Ġáī¥ áĭ°","Ġáī¥ áįįáĪĭáĭŃ","áĪ« áī¥","áĪ« áĭķ","áĪ« áĬ¸","áĪķ áĮĭ","áĮĪ áī¥áĪŃ","áĬĵ áī¥","áĬĵ áĭķ","áĬĵ áĭ®","ĠáĪĿ áī¥","ĠáĪĿ áīħ","áĪĭ áĬķ","ĠáĬķ áĬ£","ĠáĬķ áĭķ","ĠáĬķ áĬ¡","ĠáĬķ áĬ¹","áĪ¨ áįĪ","áĮį áĪĥ","áĭµ áī³áīµ","áĭµ áĪĭáĭį","áĪĺ áĭµ","ĠáĬŃ áī¥áĪį","ĠáĬŃ áī¥áĪŃáī³áīµ","ĠáĬŃ áĪ³áī¥","ĠáĬŃ áĬ¥áĪĪáīµáĬķ","áįį áīµáĪĴ","áĮ½ áĪŃ","áĮ½ áĪª","áĮ½ áĭĭ","Ġáĭĺ áĭ³","Ġáĭĺ áīķ","Ġáĭĺ áĭµáĪĬ","Ġáī ¤","áĭį áĮ½áĭĭ","áĪī áĬ¥","áĪĵ áĪµ","áĪĵ áįįáī²","ĠáĮ Ń","áĬ½ áĬĲáīµáĬķ","áĭ° áĬķ","Ġáī° áĪĵ","Ġáī° áĮł","Ġáī° áĪµáįĭ","áĭ³ áĭµ","ĠáĪµ áĬ¥","áĭĪ áĪ°áĬķ","áī¶ áīµ","áĭĵ áī°","áĭĵ áĭĿ","áĭĵ áī¢","áĭĵ áī³áĭĬ","ĠáĪĵ áĭ«","ĠáĪĵ áĪ¨áĪµ","ĠáĪĵ áĭĪáĪį","Ġáĭµ áĪĮ","Ġáīµ áīłáĪŃ","Ġáīµ áĮ½áī¢áīµ","áĪĥ áĭŃ","áĮĭ áĭĿ","áĪ³ áĬķ","áĪ³ áĬº","ĠáĬ« áĪįáĬ¦áīµ","ĠáĬ« áĪįáĬ£","ĠáĭŃ áĪķ","ĠáĭŃ áĮĪáĪįáĮ½","ĠáĭŃ áĬ¨áĬ£áĪį","ĠáĭĿáī° áĪ³","ĠáĭĿáī° áĬ»","Ġáī¥áĪĿ áĭķ","áĪ© áĬķ","áĪ© áīµ","ĠáĬĲ áĭŃáĪ©","ĠáĬķáĪĿ áī¥","ĠáĬķáĪĿ áĪŃáĮįáĮĭáĮ½","ĠáĪĽ áĭķáĪŃ","ĠáĪķ áĮ½","ĠáĪķ áī¥áĪŃáī³áīµ","áĭĭ áĪķ","ĠáīĢ áĪĬáĪį","Ġáīħ áĭµáĪļ","áĬĴ áĬ«áĭĬ","áīĥ áĭį","ĠáĪħ áĬķáĮ»","ĠáĮ¸ áĪĵáįįáī²","ĠáĭĺáĭŃ áī°","ĠáĭĺáĭŃ áī¥áĪī","Ġáĭ° áĪĥáĭŃ","ĠáīµáĪĿáĪħáĪŃ áīµáĬķ","ĠáĮ½ áĭįáĮ½áĭĭ","áĪŀ áĭ«","áĭķáī£ áĪį","ĠáĮĪ áĮł","áĬ½áĬ¥ áĪİ","áĬ© áĪ®","áĮ¹ áĬķ","áĮ¹ áĪŃ","Ġáī£áĪħ áĪįáĬķ","Ġáī£áĪħ áĮĬ","Ġáī£áĪħ áĪĭáĭĬ","áīłáĪ¨ áĪī","ĠáĬ¥áĬĵ áĭĵ","ĠáĪĽáĪķ áīłáĪ¨","áĪ½ áīķáĪĪáīµ","ĠáĬ£áĪĪ áĬĵ","Ġáī¥áĭĿ áĪĴ","áĬ³ áĬķ","ĠáĪĺáĮ½ áĬĵáĭķ","ĠáĪµáĬĲ áĮ½áĪĳ","ĠáĪµáĬĲ áĬ£áĬ¥áĪĿáĪ®","ĠáĬ¥áĬķáī° áĭĺáĭŃ","áĬ¥áĪµ áĬĲáīµ","ĠáĪĿáĪħ áĪĭáĭį","ĠáĭĪáĭŃ áĭĺáĪ®","ĠáĭĿáĪŃáĬ¨ áī¥","ĠáĭĿáĪŃáĬ¨ áī¡","ĠáĬ¢ áĪī","áĪįáĬŃ áīµ","Ġáī¥áīĲ áĪĬ","áĪĤ áĭĪáīµ","ĠáĪŀ áĭ«","ĠáĪĿáīµ áī¥áī£áĭķ","ĠáĬŃáĪħ áĪįáĭİ","ĠáĮī áĭķáĭŀ","áī£áĭķ áī°","ĠáĬŃáįį áĪĬ","ĠáĬŃáĬ¢ áĪī","ĠáĪĤ áĭĪáīµ","áĮĪáī¥ áĪ®","ĠáīĢáĭ³ áĪŀáīµ","Ġ20 0","áĬ¥áĬķ áī°","áī°áĬ£ áī³","áĪĺáĮ½ áĪĶáīµ","ĠáĪµáĪŃ áĭĵáī°","Ġáī¥áĪĿáĭĥ áĬĳ","ĠáĪįáĪĿ áĭĵáī³áĭĬ","ĠáĮ¸áĮĪ áĪĿ","áĪµáĬĲ áĮ¥áīł","ĠáĮ½áĪĳ áįĭáīµ","ĠáĪŃáĬ¥ áĭŃáī¶","áĪµáīµ áĪª","Ġáī¥áĪĺ áĮł","ĠáĮİ áĭ°áĬĵ","áĬ«áĭ¨ áĭµ","ĠáĭĿáĬĲáĭįáĪĲ áīµ","áī¥áĭĻ áĪķ","ĠáĪĺáĪ° áĬ»áĬ½áĪŃ","Ġáī¥áĪį áĮ½","ĠáĬ¹ áĪī","Ġáįĸ áĪĪáī²","áĬ£áĬķ áīłáī¥áī²","ĠáĬŃáīł áĪĥáĪį","áįįáĪ² áĭĪáĬ¨áįį","Ġáī°áī£áĪĤ áĪī","ĠáĪĵáĪĭáįį áĬĲáīµ","ĠáīµáĪŃáĮī áĪĿ","ĠáĭĪáĮĪ áĬķ","ĠáĭįáĮ½áĬ¢ áīµ","ĠáĮ¸áī¥áĮ» áī£áīµ","ĠáĭĿáĬ£áĪĺáĪ° áĪĪ","ĠáīĥáĪį áĪ²","ĠáĪĺáĪ¨ áĭ³áĬ¥áī³","ĠáĪĺáĭĪ áĭ³áĬ¥áī³","ĠáĪĺáĪ» áĪŃ","ĠáĬķáĬ¡ áĪµ","ĠáĪĵáĪ¨áĪµ áī¶áīµ","ĠáĪĵáĭĪáĪį áī²","ĠáīµáīłáĪŃ áĪħ","ĠáĭĿáī°áĬ» áĭ¨","0 0","Ġ 4","áī «","áī Ĩ","áī Ī","áĮ Į","áī¥ áĪķ","áī¥ áīķ","áī¥ áīĲ","áī¥ áī£áĪŃ","áī¥ áĭĺáĭŃ","áĬķ áīł","áĬķ áĮĪ","áĬķ áĪĵ","áĬķ áīħ","áīµ áĪķ","áĪĿ áĪħ","áĪĿ áĮĭ","Ġáį ¦","áĪŃ áī¥","ĠáĬ£ áĪĭ","ĠáĬ£ áĭµ","ĠáĬ£ áĪĽ","ĠáĬ£ áĭį","ĠáĬ£ áĬ½","ĠáĬ£ áĪĥ","ĠáĬ£ áī¦","ĠáĬ£ áīķáĪª","áĪį áĪĿ","áĪį áīł","áĪį áīĢ","áĪį áĭĳáĪį","áĪį áįĬ","áĪį áĮ¡","áĪį áĭ®áĬķ","áĭŃ áĭİ","ĠáĬ¥ áĪŀ","áĬ¥ áĪĪáīµ","ĠáĭĿ áī¥","ĠáĭĿ áīķ","ĠáĭĿ áĮ¥","ĠáĭĿ áĪŃáĮį","ĠáĭĿ áĮĪáĪįáĮ½","ĠáĭĿ áĬ¨áĬ£áĪį","ĠáĭĿ áĬ½áĬ¥áĪī","ĠáĭĿ áĪ¨áĬ½áī¡","áī° áĬķ","áī° áĭŃ","áī£ áĪħáĪŃ","ĠáĪĺ áĭĵáĪį","ĠáĪĺ áĪ«áĬ¸","áī³ áī±","áī³ áĪªáĬ½","áĪĪ áī¥","áĪĪ áĪį","áĪĪ áĭŃ","áĬĲ áīłáĪ¨","áĬĲ áī³áĭįáĭ«áĬķ","áĪµ áĭ«","áĪ° áįĬ","áĬ£ áĭį","áĬ£ áĪī","Ġáī¥ áĭĺ","áīł áīµ","áīł áĪ®","áĪ« áĪĽ","áĪ« áĭįáĭ«áĬķ","áĬĵ áĮ»","áĬĵ áī³áīµáĬķ","ĠáĪĿ áĬ¥","ĠáĪĿ áĪķ","ĠáĪĿ áĮį","ĠáĪĿ áĪŃáĮįáĮĭáĮ½","ĠáĪĿ áĪīáĬ¥","áĭ« áĭª","áĪĭ áĭįáĬķ","áĪĭ áĭī","ĠáĬķ áĭµ","ĠáĬķ áĭį","ĠáĬķ áīĳ","ĠáĬķ áĪĺáĬķáĬ¥áĪ°áĭ«áīµ","ĠáĬķ áĬ¥áĪµáĬĲáīµ","áĪ¨ áĭµ","áĮį áĪŃ","áĮį áī²","áĭµ áĪŃ","áĭµ áĬ«","ĠáĬ£áī¥ áĬĲáī³áĭįáĭ«áĬķ","áĪĺ áīµ","ĠáĬŃ áĪµ","ĠáĬŃ áĮį","ĠáĬŃ áĮĪáĪįáĮ½","ĠáĬŃ áĪ¨áĬ½áī¡","ĠáĬŃ áĪŃáĬł","áĪĽ áĪĿ","áĪĽ áĪį","áĪĽ áīķ","áĭķ áī¥","áĭķ áĬĵ","áįį áīķáĪª","áĮ½ áĬķ","Ġáĭĺ áĮĪáĪįáĮį","Ġáĭĺ áĮĪáĪŃ","áĪħ áī¥","áĪħ áĪī","áĪħ áĮī","ĠáĬ¨ áĪĪ","ĠáĬ¨ áĬ«","Ġáī ĺ","áĭį áĪķ","áĭĿ áĮĪ","áĭĿ áĪĳ","áĪī áĭŃ","áĪĵ áĬķ","áĪĵ áĬķáī²","ĠáĮ Į","áĪª áī¡","áĪİ áĪļ","áĭ° áĭŃ","Ġáī° áĪ°","Ġáī° áĬ£","Ġáī° áĭĵ","Ġáī° áĮ»","Ġáī° áĮ¸","Ġáī° áĬ»","Ġáī° áĬ½áĬ¥áĪİ","áĭ³ áĪŃ","áĭ³ áĭ°","áĭ³ áĭ«áīµ","ĠáĪµ áĪį","ĠáĪµ áĬĴ","áĭĪ áĪµ","áĭĵ áīķ","áĬ¨ áĬ£áĪįáĬķ","áĬŃ áĪµ","Ġáĭĵ áĪļ","Ġáĭĵ áĪĿáĭ²","áĮ¥ áīĥ","ĠáĪĵ áĭŃ","Ġáĭµ áĪį","Ġáĭµ áĬ½áĬĲáīµáĬķ","áĮ» áĬ¥","áĬ£áī¥ áĭļ","áįĪ áĪ»","áįĪ áī°áĬĲ","áĪ³ áĭŃ","Ġáĭķ áĭ³","Ġáĭķ áĭµáĪį","ĠáĭŃ áĪ°","ĠáĭŃ áĬ¸áĭįáĬķ","ĠáĭŃ áĬ¾áĬĳ","ĠáĭŃ áĮĪáĪįáĮ¹","ĠáĭĿáī° áĪĺ","ĠáĭĿáī° áĪĺáĪŃ","Ġáī¥áĪĿ áī£áĪį","Ġáī¥áĪĿ áĮįáĬķ","áĭĺ áĬĴ","ĠáĬĲ áĭĽ","ĠáĪĽ áĭķ","ĠáĭĪ áĭĺáī°","áī¡ áĪŃ","áī¡ áĮ¥","ĠáĪķ áĪŃáĪ»","ĠáĪķ áĪĺáĪ¨áīµ","ĠáĪķ áī³áĪĿ","áĬ¸ áĭŃáĭµ","áĭĭ áĬķ","áĭĭ áīµ","áĭĭ áĪĭ","ĠáīĢ áī£","áĭĽ áĬķ","Ġáīħ áĪŃ","Ġáĭį áĪĳ","Ġáĭį áĭ±","ĠáĪħ áĪĭáĭĪ","ĠáĮ¸ áĮĭ","ĠáĮ¸ áĮĭáī³áīµ","Ġáįį áĮ¹","Ġáįį áīµáĪĴ","áĬ» áĪįáĬ¦áīµ","áī¥áĬ£ áĭĬ","ĠáĮ½ áĪĭáīµ","ĠáĮ½ áĪŃáĮį","áĪŀ áĬķáī°","ĠáĬ® áĪĿáĬķ","ĠáĮĪ áĭŃáĪ©","ĠáĮĪ áĪĿáĮĭ","áĪ°áĪ¨ áī°","Ġáīł áī¥","Ġáīł áī²","ĠáĭĺáĪĪ áĭį","áī¥áĪŃ áĬķ","áī¥áĪį áĭĳáĪį","áĪĲ áīµ","áĬ¹ áĪµáĬ³áĪµ","áĬ¹ áĪĪáĬķáīµáĬĵ","ĠáĬ£áĭŃ áī°","áĪŃáĬ¨ áī¡","ĠáĮ¥ áīł","ĠáĮ¥ áīķ","ĠáĮ¥ áīłáī¥","áĪ½ áĬķ","ĠáĭĵáĪĪ áĪĽáĭĬ","áĮī áĪµ","áĮº áĪŃ","áĮİ áĪį","ĠáĪĿáĭĥ áĬĵ","ĠáĪĿáĭĥ áĬĸáĪĿ","ĠáĪķáī¥áĪ¨áī° áĪ°","ĭáĬķ áīĭ","áī¤ áīµ","áĭ¶ áĬŃáī°áĪŃ","ĠáĪŃ áĬ¥áĪ°","ĠáĪ¨ áī¥áĪĵ","áĮĥ áĪĿ","áĮ£ áĪŃ","ĠáĬ¥áĬķáī° áĬ¾","Ġ1 0","Ġ1 2","Ġ1 9","ĠáĭĿáĪĺ áĮ¸","ĠáĬ£áĬ« áĪį","ĠáĭĿáĪŃáĬ¨ áīłáĪī","ĠáĭķáĪĭáĪĽ áī³áīµ","ĠáĬ¢ áĪĪ","ĠáĬ¢ áĬĵ","ĠáĪĺáĬķ áįĪ","Ġáī¥áīĲ áĪ¨áī£","ĠáĪĿáĪĿ áĪķ","ĠáĪĿáĪĿ áĭķáī£áĪį","ĠáĬŃáĪħ áĪį","áĮĬ áīµ","ĠáĭĿáĪĿ áĪįáĬ¨áīµ","ĠáĪĿáĭķ áĪ«","ĠáĬ£áĪµ áĪĺáĪ«","ĠáĬ£áīłáĪŃáĬŃáī¶ áĬķ","Ġáī°áĭĪ áįĭ","ĠáĪħáĭĿáī¢ áĬķ","áīĵ áīķ","ĠáĪĤ áĭĪáī¶áĪĿ","áī°áĭĪ áĪİáĪĿ","ĠáĬŃáī¥ áĪĥáĪį","áĪĽáĪķ áīłáĪŃ","ĠáĮł áīķ","Ġáī¥áĪĿáĭĥ áĬķ","Ġáī¥áĪĿáĭĥ áĬĸáĪĿ","ĠáĪįáĪĿ áĭ³áĭĬ","Ġáĭĭ áĪĭ","áīµáī³ áĬķ","ĠáĬ¨áī° áĪĽ","Ġáīģ áĮ½áĪª","áĭĵáĪĪ áĪĿ","áĮĵ áĭĵáĭĿ","áĬķáĮ¸ áī£áĪŃ","áĬķáīĢ áĪ³","Ġáī¥áĮį áī¥áĪª","Ġáī¥áĪĵ áīĤ","Ġáī´ áĬŃ","ĠáĪĺáĪ³ áĪŃáĪĴ","áĪĺáĪµ áĪŃáĪķ","Ġáī£áĭķ áĪĭ","Ġáī£áĭķ áĪİáĪĿ","ĠáĭĿáĬĲáīł áĪ®","ĠáĪŃáĬ¥ áĪ²","áī¥áĭĿ áĪĴ","ĠáĪĺáĪª áĪķ","ĠáĬķáīķ áĪĵáīµáĬķ","ĠáĮĢ áĪļ","ĠáĬķáĪĿáīµ áĮįáī£áĪŃ","ĠáĬķáĪĿáīµ áĬ¥áīµáī³","áī¥áĪĺ áĪ°áĪ¨áīµ","áĬķáĭį áĪĵ","ĠáĬ£áĪŃ áĬ¥áĪµ","ĠáĬ£áĪŃ áī£áĭķáī°","ĠáĭĿáĪĪ áĭĵáĪĪ","ĠáĭĿáĭĵ áīłáĭ¨","ĠáĪĺáĪĿ áĭĺáĬĴ","ĠáĬŃáĬ¸ áĭŃáĭµ","Ġáĭĺáī° áī£áī¥","ĠáĪµáĪįáĮł áĬĵáī³áīµ","áĭĵáĭŃ áĬĲáī±","Ġáĭĵáĭį áĭµáī³áīµ","Ġáĭįáĭµ áī¥","ĠáĪļáĬ¥áī³áĭĬ áīµ","ĠáĬŃáĬ¢áĪĭ áī³áīµ","Ġ201 1","Ġáĭ³ áĭŃ","ĠáĬ£áĬ¨ áī£áī¢","áĪµáĪĪ áĭļ","ĠáĬŃáįĪáĮ¥ áĪ©","áĭĤ áĪµáĬ³áĪµ","áī¥áĬ» áĪįáĬ¥","áī°áįĪáĪĭáĪĪ áĭ¨","áĪµáĮĭ áĪµ","Ġáī¥áĭµ áĪĨ","áĪ«áĬ¥ áĭ®áĪĿ","ĠáĪĿáī ¹","Ġáī°áĪŃáĬ¥ áĭ®","ĠáĪĵáĪ³ áī£áīµáĬķ","ĠáĭĿáī°áĮłáīķ áĪ°","ĠáĪħáĮ» áĬĵáīµáĬķ","ĠáĬ¥áĬķáĬ¨ áĪİ","Ġáĭĳ áįį","áĬĲáĭĬ áĪķ","áĪķáĮĭ áĭĬ","Ġáī¤ áīµ","ĠáĪĽáĭķáĪŃ áĬĲáīµáĬķ","ĠáĪķáĮ½ áĪ¨","ĠáĪµáĬĲáĮ½áĪĳ áįį","áĪµáĬĲáĮ¥áīł áī£áĭĬ","Ġáī¥áĪĺáĮł áĬĳ","ĠáįĸáĪĪáī² áĬ«","áī¥áīĲ áĬķáĭ±","ĠáĭĿáĪŃáĮį áĪĲ","ĠáĪĺáĪ«áĬ¸ áī¢","ĠáĭĺáĮĪáĪŃ áĪĿ","Ġáī°áĬ» áĭŃáĭ±","Ġáī¥áĪĿáĮįáĬķ áĭĽáī¥","ĠáįįáĮ¹ áĪĿ","áĬ¹áĪĪáĬķáīµáĬĵ áĬ¡","ĠáĮ¥áīłáī¥ áĬķ","´ áįį","» áĪįáĬ¥","» áĭŃáĬĵ","Ġ áīµáĬķ","áĪ ¾","áĪ Ģ","áĪ ´áįį","áĬ ²","áī ¨","áī ĺ","áī ļ","áĭ Ĳ","ĠáĬ ł","ĠáĬ »áĪįáĬ¥","áĮ ª","ĠáĪ ±","ĠáĪ İ","áī¥ áĪ«","áī¥ áĭ«","áī¥ áĪ®","áī¥ áĭĽ","áī¥ áĬ¦","áī¥ áĪ°áĬķáĬª","áĬķ áīµ","áĬķ áĮ½","áĬķ áĭ«áīµ","áĬķ áĬ¹","áĬķ áīĤ","áĬķ áĮİ","áĬķ áī«","Ġáĭ ©","Ġáĭ Ĵ","áį Į","áį ķ","áīµ áĪŃ","áīµ áĮ½áī¢áīµ","áĪĿ áĪŃ","áĪĿ áī¥áĭ«","Ġáį ĭ","Ġáį ķ","áĪŃ áĬĲ","áĪŃ áĭ©","áĪŃ áĬª","áĪŃ áĬ¥áĪµ","ĠáĬ£ áĬĲ","ĠáĬ£ áĪ«","ĠáĬ£ áĭ¨","ĠáĬ£ áĭĭ","ĠáĬ£ áĮ¸","ĠáĬ£ áīĥáĭį","ĠáĬ£ áĪħáĮī","áĪį áĪĪ","áĪį áĭķ","áĪį áĭ¨","áĪį áĬ©","áĭŃ áĪ®","áĭŃ áĪŃáĭİ","áĬ¥ áīµ","áĬ¥ áĭŀáĪĿ","ĠáĭĿ áĭķ","ĠáĭĿ áĬ½","ĠáĭĿ áĬŃ","ĠáĭĿ áĮł","ĠáĭĿ áĪĥ","ĠáĭĿ áĪĵáīµ","ĠáĭĿ áĪĿáĪµ","ĠáĭĿ áĬ¾áĬĳ","ĠáĭĿ áĪ³áī°áįī","ĠáĭĿ áĬ«áĭ¨áĭµ","ĠáĭĿ áĪ°áĪ¨áī°","áī° áĪ«","áī° áĭį","áī° áĪī","áī° áĬ¨","áī£ áĮ¥","áī£ áĬķáĭ«","ĠáĪĺ áĮį","ĠáĪĺ áĪ«áĪķ","ĠáĪĺ áĪ¬","ĠáĪĺ áĮĢ","ĠáĪĺ áĪĥáĭĿ","ĠáĪĺ áĮĵáĭĵáĭĿ","áī³ áĬķ","áĪĪ áĬŃáīµ","áĬĲ áĭĽ","áĬĲ áī¥áĪ¨","áĬĲ áīłáĪ®","áĪµ áī£","áĪµ áĪ³","áĪµ áįī","áĪµ áĭµáĪ«áī¤","áĪµ áĬĲáī±","áĪµ áī°áĪŃ","áĪµ áīĵ","áĪµ áĮ¦","áĪ° áĬĲ","áĪ° áĪīáĬķ","áĬ£ áĭŃ","áĬ£ áĬ«","áĬ£ áĭįáĬķ","áĬ£ áĪİáĪĿ","áĬ£ áī£áĪĭáīµ","áĬ£ áĮĪáĭ³","Ġáī¥ áĬķ","Ġáī¥ áĬ½","Ġáī¥ áĭĪ","Ġáī¥ áĪ°áĬķáĬª","Ġáī¥ áī¥áīķ","Ġáī¥ áĪ°áįĬ","áīł áĮĪ","áīł áī²","áīł áĭŃáĬĳ","áīł áĬĽ","áīł áĪĪáĮ¸","áĪ« áĬķ","áĪ« áĪį","áĪķ áīµ","áĪķ áī¥áĪ¨áī°","áĪķ áįĪáīµ","áĮĪ áĪ«áīµ","áī² áĪĻ","áĬĵ áĭ³","áĬĵ áī±","áĬĵ áĮ¸","ĠáĪĿ áĮ½","ĠáĪĿ áĭĿ","ĠáĪĿ áī£áĪį","ĠáĪĿ áĪŃáĬ£","ĠáĪĿ áĪķáĭ°áĪ«","ĠáĪĿ áĪŃáĬ©","ĠáĪĿ áĪįáĬŃáīµ","ĠáĪĿ áĭĤáĪµáĬ³áĪµ","áĭ« áĭµ","áĪĭ áĪķ","áĪĭ áĪĭ","áĪĭ áī³áīµ","áĪĭ áĮ¥","ĠáĬķ áĮį","ĠáĬķ áĬ¸","ĠáĬķ áĪ±","ĠáĬķ áĪĥáĮĪáĪ«áĭĬ","ĠáĬķ áĪ¸","ĠáĬķ áĮ¹áĪŃ","ĠáĬķ áįĪáī°áĬĲ","ĠáĬķ áĬ»áĪįáĬ¦áīµ","ĠáĬķ áĮīáĪµ","ĠáĬķ áĭĵáĪĪáĪĿ","ĠáĬķ áĬĲáĭĬáĪķ","áĪ¨ áĪī","áĪ¨ áĬŃ","áĮį áĭ°","áĮį áĮ¹","áĮį áĭĴ","áĮį áĪ¶","áĮį áĭĽáĬ¥","áĭµ áĪĿ","áĭµ áĭŃ","áĭµ áĪª","áĭµ áĪ®","áĭµ áĮĵ","áĭµ áĬ³áĬķ","áĪĺ áĪī","áĪĺ áĭĵ","ĠáĬŃ áĭķ","ĠáĬŃ áĭĿ","ĠáĬŃ áĭ³","ĠáĬŃ áī¥áĪŃ","ĠáĬŃ áĭµáĪį","ĠáĬŃ áĬķáĭ²","ĠáĬŃ áĮ¥áīĢ","ĠáĬŃ áĮĪáĪįáĮ¹","ĠáĬŃ áĪĺáĮ½áĬ¥","ĠáĬŃ áĮĪáī¥áĪŃ","áĪĽ áĪįáĬ¥","áĪĽ áĪĿáĬķ","áĭķ áĬĵáĬķ","áįį áĪŃ","áįį áīħ","áĮ½ áĪĿ","áĮ½ áĬĵ","Ġáĭĺ áĪµ","Ġáĭĺ áĭķ","Ġáĭĺ áĮĭ","Ġáĭĺ áĪĲ","Ġáĭĺ áĬ½áĬ¥áĪį","Ġáĭĺ áī°áĬ£","Ġáĭĺ áĪŃáĬ¥áĪµ","áĪħ áĬķ","áĪħ áī¦","áĪħ áĬĵáĮ½","Ġáī ĭáĬķáīĭ","Ġáī »áĭŃáĬĵ","áĭį áĭķ","áĭį áĪĥ","áĭį áĬŃáĪį","áĭį áĪħáī¦","áĭĿ áĭ«áĭ³","áĪī áĭį","áĪī áĬĴ","áĪĵ áĭŃ","áĪĵ áįį","áĪĵ áĪĭáįį","áĪª áĬŃ","áĪª áĬ«áĬķ","áĪİ áĪŀ","áĪİ áĪĿáĬķ","áĪİ áĮĤ","áĭ° áĮį","áĭ° áī¡","Ġáī° áĪŀ","Ġáī° áĮįáī£","Ġáī° áĭįáĪħáī¦","áĭ³ áĪĿ","áĭ³ áĪį","áĭ³ áĬĲ","áĬ« áĪįáĬ¥","áīķ áĮ¢","áīķ áĪ«áī¥","áĭĪ áī±","áĭĵ áĪĺ","áĭĵ áī¥áĬķ","áĬ¨ áĪŃáĭµ","áĬ¨ áĬĵáīµ","áĬ¨ áĪĺáĭŃ","áĬŃ áĪĪ","Ġáĭĵ áĭĪ","Ġáĭĵ áĪ°áĪŃ","Ġáĭĵ áĭ«áĭª","ĠáĪĥ áī¥","ĠáĪĥ áĪĽáĪĺáī°áĬ¤","áĮł áĪŃ","áĮł áĪ«","áĮ¥ áĪĻ","ĠáĪĵ áĪŃ","ĠáĪĵ áĮĪ","ĠáĪĵ áĪĻ","ĠáĪĵ áĪ³áī¥","ĠáĪĵ áĬķáī²","Ġáĭµ áĪ«áĪĽ","Ġáīµ áĪµáįī","áĮ» áīµ","áĮ» áĪĽ","áĮ» áįį","áĮ» áĪĬ","áĬ£áī¥ áĬĲáīµ","ĠáĬ¨áĪĿ áĭļ","áĪĥ áĪĥ","áĮĭ áĪļ","áĭ¨ áĬķ","áĭ¨ áĪŃ","áĪ³ áĪ°áĪŃ","Ġáĭķ áĬķ","Ġáĭķ áĭĻ","Ġáĭķ áĭī","Ġáĭķ áī¤áīµ","ĠáĬĵáĭŃ áī²","ĠáĬĵáĭŃ áĭļ","ĠáĬ« áĬķáī«","ĠáĭŃ áĪµ","ĠáĭŃ áĮ½","ĠáĭŃ áĮįáī£","ĠáĭŃ áįįáĪĪáĮ¥","ĠáĭŃ áĮįáĪĪáĮ½","ĠáĭŃ áĪĺáĮ½áĬ¥","ĠáĭŃ áĬ¸áĭŃáĭµ","áī¢ áĪ©","ĠáĭĿáī° áĭ³áĪĪ","Ġáī¥áĪĿ áĬ¥","Ġáī¥áĪĿ áĪµ","Ġáī¥áĪĿ áįį","Ġáī¥áĪĿ áĭį","Ġáī¥áĪĿ áĬ¥áī³","Ġáī¥áĪĿ áĪŃáĭ³áĬ¥","Ġáī¥áĪĿ áĮįáĭĽáĬ¥","ĠáĬ¥áĭļ áĬ£","áĪ© áĭŃ","áĭĺ áĬĵ","ĠáĬĲ áī£áĪª","áĬĳ áĬķ","ĠáĬķáĪĿ áĪĿ","ĠáĬķáĪĿ áĪµ","ĠáĬķáĪĿ áĭķ","ĠáĬķáĪĿ áĮįáī£","ĠáĬķáĪĿ áĮŃ","ĠáĬķáĪĿ áĪħáĬĵáĮ½","ĠáĪĽ áĭŃ","áĭ² áĬ¡","ĠáĭĪ áįį","ĠáĭĪ áĭ²","áī¡ áīķ","áī¡ áĪ«áīµ","ĠáĪķ áī¶","ĠáĪķ áĭµáĪª","ĠáĪķ áī¡áĪ«áīµ","áĭĭ áĪµ","áĭĭ áĪħ","áĮ¸ áĬķáĪĲ","ĠáīĢ áĪªáī¡","áĪĳ áĬķ","áĪĳ áīķ","áĭĽ áĮĬáīµ","Ġáīħ áĬķ","Ġáīħ áĭ«áī³áīµ","Ġáīħ áĪįáĭį","Ġáĭį áĪŃáĪ»","ĠáĮ¸ áīķáĮ¢","áīĲ áĬķ","áĭ± áĪį","Ġáįį áĪŃ","Ġáįį áĪįáĪµáįį","ĠáĮį áĪĿáīµ","ĠáĭĺáĭŃ áīµ","ĠáĭĺáĭŃ áĪķáĮĭáĭĬ","áī¥áĪ¨ áĪĤáĭĪáīµ","áĬ» áĬķ","áĬ» áĪį","ĠáĪ° áĪª","ĠáĪ° áī¥áĬ£áĭĬ","Ġáĭ° áĪª","Ġáĭ° áī¡","ĠáĪĿáĪµ áĬŃ","ĠáĪĿáĪµ áĪ«áĪķ","áĬ¾ áĬķ","áīĢ áĮ»","ĠáīµáĪĿáĪħáĪŃ áī³áĭĬ","ĠáĮ½ áĪķáįĪáīµ","áĪŀ áĭĿ","ĠáĬ® áĬĲ","ĠáĬ¥áĬķ áĮį","ĠáĬ¥áĬķ áĪµáĪ³","áĬ¦ áĪĿáĬķ","ĠáĮĪ áĪĪ","ĠáĮĪ áĪĬ","ĠáĮĪ áĭ²","ĠáĮĪ áĭĽáĬ¥","ĠáĮĪ áĭŃáĪ®áĪĿ","ĠáĮĪ áĪµáĮĭáĪµ","ĠáĮĪ áī¥áĪ¨áĪĤáĭĪáīµ","Ġáīł áĮº","Ġáīł áĭŀáĪĿ","Ġáīł áĭĵáĪį","Ġáīł áīłáĭŃáĬĳ","ĠáĬ¤ áĪĪáĬŃáīµ","ĠáĭĺáĪĪ áĬĵ","ĠáĪĥáĮĪáĪŃ áĬĵ","áī¥áĪŃ áĮįáĮ½","ĠáĬ£áįį áĪįáĮ¦","áĬ¹ áĪĿ","áĭī áĬķ","ĠáĬ© áĪİáĪĿ","ĠáĬ© áĪĪáĬķáīµáĬĵ","Ġáī£áĪħ áĮī","ĠáĬ£áĭŃ áĬ®","ĠáĬ£áĭŃ áĬŃáĬ¥","ĠáĬ£áĭŃ áĬ¨áĬ£áĪįáĬķ","áĪŃáĬ¨ áī¥","áĪĻ áĬķ","áĪ½ áī°","áĪ½ áī±","ĠáĬ¥áĪĿ áīłáĪŃ","ĠáĬ¥áĪĿ áĬĴ","ĠáĬ£áįįáĪªáīĥ áĭįáĭ«áĬķ","ĠáĬ¤áĪŃáīµ áĪ«áĭĬ","ĠáĬ£áĪĪ áĭĭ","áĮİ áĪĿ","áĮİ áĬĵáĮ¸","áī¥áĭ¨ áīµ","áĪ¨áĬ½ áīłáĪī","ĠáĪŃ áĬŃ","ĠáĪŃ áĭ±","ĠáĪ¨ áĮĬ","ĠáĭĿáīł áĪĪ","ĠáĭĿáīł áĪĪáĮ¸","áĬĸ áĪİáĮĤ","áī£áĪħ áĪĭáĭĬ","ĠáĪµáĬĲ áĪĿáĪķáĭ°áĪ«","ĠáīµáĬ« áĪĭáĭĬ","áĬª áī¦áĪĿ","áĬª áĬ¤áĪį","ĠáįĪ áī°áĬĲ","ĠáĪħáĭĿ áī¥","ĠáĬ¥áĬķáī° áĬ¾áĬĲ","áĬ¤ áĪŃáīµ","áĬ¥áĪĿ áĪĽáĬķ","ĠáĪ½ áĪŃáĪĴáī³áīµ","ĠáĬ£áĬ« áĭŃáĭ±","áĭĴ áī£","ĠáĪļ áĬĴ","ĠáĪļ áĪįáĭ®áĬķ","ĠáĪļ áĬªáĬ¤áĪį","Ġáĭ¨ áĪ¨áĮĭ","Ġáĭ¨ áĭµáĪĬ","Ġáĭ¨ áĪ¨áĭµ","ĠáĭĿáĪŃáĬ¨ áī£","ĠáĭĿáĪŃáĬ¨ áī¦","áĪŃáĪĵ áĪİáĪĿ","ĠáĪĺáĪµ áĭĭ","Ġáī¥áīĲ áĮ»áĪĬ","ĠáĬ¨áī£áī¢ áĬ¡","ĠáĬ¨áī£áī¢ áĬ¦áĪĿ","Ġáī°áĪĺ áĪµáĮ¦","ĠáĪµáĭµáĪ«áī¤ áīµáĬķ","ĠáĪµáĭµáĪ«áī¤ áī³áĭĬ","Ġáī¥áīķ áĭĵáīµáĬķ","ĠáĪĿáĪĿ áĪ«áĪķ","ĠáĬŃáīµ áĪ°","ĠáĮī áĪįáīł","ĠáĮī áĭ³áĭ«áīµ","ĠáĭĿáĭĪ áĪŃáĭµ","áī³áī¶áĪĿ áĬķ","ĠáĬŃáįį áĪĪ","áĪĮ áĭĽáĬķ","ĠáĬ£áĪµ áī³áīµ","ĠáĭĿáĬ¸ áĭ±","ĠáĪĺáĭµ áĪ¨","áĪĺáĬķ áĮ½áĪŃ","ĠáīĢáĮ» áĪįáĬĲáī±","áīĵ áĪ²","áĪŃáĬ¥ áĭ©","ĠáĪĺáĭ° áī£áīµ","ĠáīĢáĭ³ áĪĽáĭŃ","ĠáĬķáĮ¥áįĪ áīµ","áī°áĭĪ áĪ³áĬº","ĠáĪĿáĬķ áĮª","ĠáĪĿáĬķ áĮ»áįį","áĪĽáĪķ áīłáĪ¨","ĠáĮł áĪĪáī¥","Ġáī³áĪªáĬ½ áĬĵ","Ġáĭĭ áĮĭ","áĪŃáĭµ áĬ¦","áĪĺáĪŃ áī³","Ġáī°áĪ« áĬķ","ĠáĮ¸áĮĪ áĪĽáīµ","ĠáĪĺáĮ½áĪĵ áįįáī²","ĠáĭĿáĮį áīłáĪ¨áĪī","áĬĲáī¶áĪĿ áĬķ","Ġáī¥áĪĵ áįĪáĪ»","Ġáī£áĭ® áĮĭáĭĿ","ĠáĪħáĭŃ áĭĪáī¶áĪĿ","ĠáĮ½áĪĳ áįįáĬķ","Ġ7 0","ĠáĬª áĭ³áĬĲ","ĠáĬĶ áĪ©","ĠáĪĴ áĭĻ","ĠáĪĴ áĭ°áīµ","ĠáĬ¥áĭ¨ áĬķ","ĠáĪĿáĬ½ áĬķáĭ«áīµ","ĠáĪĿáĬ½ áĬ£áĪİáĪĿ","ĠáĭįáĪĳáĪµ áĬķ","ĠáĭĿáĬĲáīł áĪ©","ĠáĬ£áĮĪáĭ³ áĪ²","ĠáĬ£áĮĪáĭ³ áĪµáĬĲáī±","áĬķáĭ± áĪµáīµáĪª","Ġáĭľ áĮĭ","Ġáĭľ áĮĭáī³áīµ","áĪµáĪ«áĪķ áĬķ","ĠáĪĿáįį áī³áĪķ","ĠáĬķáīķ áĪĵáīµ","ĠáĭŃáĪŃáĬ¨ áī¡","Ġáī¥áĪĿáīµ áĪķ","áĬ»áĬ½ áī³","áī¥áĭĻ áĪĵáīµ","ĠáĭĿáĪĪ áīł","ĠáĪĿáĬŃ áĭ«áĭµ","áĭµáĪķ áĪª","áĬŃáĬ¥ áĪį","ĠáĭĿáī°áĭĵ áĭ°","Ġáĭįáĭµ áĭµáĪŃ","áĬ° áĪ¨","ĠáĭĽ áĪĿáī¥áĭ«","ĠáĬ£áĪ° áĪ«","ĠáĬŃáĪ° áĪŃáĪķ","áĭķáĭµ áĪĺ","ĠáīĨ áĪįáĭĳ","áĪĵáĪ³ áĪµáī£","ĠáĪķáĪĭáĮĪ áīµ","ĠáĪķáĪĭáĮĪ áī³áīµ","Ġáī°áĪĺáĪĥáĪ® áĬķ","ĠáĪĿáīµáĬ¥áĪµáĪ³ áĪŃ",".. .","Ġ8 00","áĪĸ áĪĿ","Ġáĭ® áĪ´áįį","Ġáĭ¶ áĬŃáī°áĪŃ","Ġáī¥áīµ áĮįáĪĥ","ĠáĬ¨áĪ¨áĮĭ áĮįáĮ½","Ġáī°áīł áĮįáĪ¶","Ġáī°áĪĽ áĪĥáĪ®","Ġáī°áīĲ áĭ³áĭ°","ĠáĪµáĪĿ áĭĴ","áĮ¥áĪĿ áĪ¨áīµ","ĠáĭĿáī°áĬ£ áī³","ĠáĭĿáī°áĬ£ áĪ³áĪ°áĪŃ","áĭĺáĪĪ áĭİ","ĠáĭĪáĪĪ áĭ¶","ĠáĭįáĪ½ áĮ¢","ĠáĪĺáĬķáĮį áĪµ","ĠáĪĺáĬķáĮį áĪµáī²","ĠáĭĿáĪĿáĭµ áĬĵáī³áīµ","ĠáĬ¨áĭŃáī° áĪ¨áįĪ","ĠáĪª áĬ¨áĪŃáĭµ","ĠáĭĿáĮĪ áīłáĪ¨","ĠáĪĺáĮįáĪĪáĮº áī³áīµ","Ġáī¥áĭ° áĪ¨áĮĥ","ĠáĪĿáī¥ áīµáī³áĬķ","ĠáĪĿáīħ áĪĭ","ĠáĬķáĬ¹ áĪī","áįįáīµáĪĴ áĬķ","ĠáĮŃ áī¡áĮ¥","Ġáī°áĮł áīĴ","ĠáĬ«áĪįáĬ£ áĭŃ","ĠáĬķáĪĿáī¥ áĮ»áĪķ","ĠáĮ½áĭįáĮ½áĭĭ áĭŃ","ĠáĪĺáĮ½áĬĵáĭķ áī²","Ġáī¥áīĲáĪĬ áĪī","ĠáĪĿáīµáī¥áī£áĭķ áĬķ","Ġáī¥áĪįáĮ½ áĮįáī²","ĠáĪĺáĪ»áĪŃ áĬ½áī²","ĠáĭĿáī°áĬ»áĭ¨ áĭ°","áī¥áĭĺáĭŃ áĬ«","áĬķáĪĵ áĭµáĪķ","áĪįáīĢ áĪį","ĠáĪĿáĬ¥ áĪĭáĭŃ","ĠáĭĺáĮĪáĪįáĮį áĪį","Ġáī°áĬ½áĬ¥áĪİ áī³áīµ","ĠáĪµáĬĴ áīµ","Ġáĭķáĭ³ áĮĭ","ĠáĭĿáī°áĪĺáĪŃ áĮ¹","ĠáĪĽáĭķ áĬ¨áĬĵáīµ","ĠáĭįáĪĳ áĭ³áīµ","ĠáĪĿáĪĿáĪķ áī£áĪŃ","Ġáī°áĭĪáįĭ áĭŃáĬĲáīµáĬķ","ĠáĮłáīķ áĪĭáĪĭ","ĠáĬ¨áī°áĪĽ áī³áīµ","áĬķáĮ¸áī£áĪŃ áīķ","áĬķáīĢáĪ³ áīĵáĪ²","Ġáī´áĬŃ áĬĸáĪİáĮĤ","Ġáī£áĭķáĪĭ áī¶áĪĿ","ĠáĬ£áĪŃáĬ¥áĪµ áī²","ĠáĪĿáī¹ áĬ¥","ĠáĬ£áĮ¸ áĮĭáĪļ","ĠáĭĿáĪĵáīµ áīµ","ĠáĭĿáĪĿáĪµ áĮ¥","ĠáĪĺáĪ«áĪķ áī²","ĠáĪĺáĪ¬ áīµ","Ġáī¥áī¥áīķ áĭĵáīµ","áĪķáī¥áĪ¨áī° áĪ°áī¥","áĬĵáĭ³ áĬ¢","ĠáĪĿáĪŃáĬ© áĪµ","áĭµáĮĵ áĭµ","ĠáĭĺáĪĲ áī¥áĬķ","ĠáĭĺáĪŃáĬ¥áĪµ áī³","ĠáĭĵáĪ°áĪŃ áī°","ĠáĪĵáĪĻ áĪ½áī°","ĠáĭķáĭĻ áĭĿ","ĠáĬ«áĬķáī« áĪµ","ĠáĭŃáĮįáī£ áĬ¥","Ġáī¥áĪĿáĬ¥áī³ áĭį","ĠáĬķáĪĿáĮŃ áī£áĮ¥","ĠáĬ©áĪĪáĬķáīµáĬĵ áĭĬ","ĠáĬ£áĭŃáĬ® áĬĳáĬķ","Ġáĭ¨áĪ¨áĭµ áĬ¥","Ġáī°áīĲáĭ³áĭ° áĪĿáī²","1 6","1 9","2 6","2 7","5 9","? \"","´ áĪį","» áĪĿ","¾ áĭŃáĬĳ","Ġ '","Ġ )","Ġ -","Ġ 5","Ġ 6","Ġ áīłáĪŃ","ħ áĮįáĬķ","Į áĪĭáĬķ","Ķ áī³áīµ","ĸ áī¨","ĺ áĬķ","áĬ µ","áĭ Ģ","áĭ ´áĪį","ĠáĬ ¾áĭŃáĬĳ","ĠáĬ ĸáī¨","áĮ ¨","áĮ «","áĮ ³","áĮ Ĵ","ĠáĪ ľ","ĠáĪ »áĪĿ","ĠáĪ ĮáĪĭáĬķ","áī¥ áĪĿ","áī¥ áĪĪ","áī¥ áĮ½","áī¥ áĭ°","áī¥ áĪĥ","áī¥ áĬ¡","áī¥ áĭ©","áī¥ áĪİáĪĿ","áī¥ áĪ±","áī¥ áīĳ","áī¥ áĬ¦áĪĿ","áī¥ áĭĽáĭķáī£","áī¥ áĪ¶áĪĿ","áī¥ áĬ¹áĪĪáĬķáīµáĬĵáĬ¡","áī¥ áĪĺáĬķáĮ½áĪŃ","áī¥ áī°áĭĪáĪ³áĬº","áĬķ áĪĿ","áĬķ áĬ¥","áĬķ áĪ°","áĬķ áĬ£","áĬķ áĬĵ","áĬķ áĮį","áĬķ áĬ½","áĬķ áĭļ","áĬķ áĬ»","áĬķ áĮ¢","áĬķ áīĭ","áĬķ áĪķáĬĵ","áĬķ áĪŀáĭ«","áĬķ áĭ°áĭŃ","áĬķ áĬŃáĪĪ","áĬķ áī¥áĭĻáĪĵáīµ","Ġáĭ ĭáĬķ","áīµ áī³áīµ","áīµ áĭ®","áīµ áĭĪáīµ","áĪĿ áī£","áĪĿ áī³","áĪĿ áĮ½","áĪĿ áĪĥ","áĪĿ áĪ³","áĪĿ áĬĲáīµ","áĪĿ áī¥áĪŃ","áĪĿ áĪįáĬ¨áīµ","áĪĿ áĪĿáĪµáĪ«áīµ","áĪĿ áīĪ","Ġáį Ĭ","áĪŃ áĪµ","áĪŃ áĮĪ","áĪŃ áĮ½","áĪŃ áĪī","áĪŃ áĪĥ","áĪŃ áĬ¢","áĪŃ áĭĳ","áĪŃ áĭİáĪĿ","áĪŃ áĬº","áĪŃ áĬ°","áĪŃ áĪĸ","áĪŃ áĮ¹áĬķ","áĪŃ áĮĮ","ĠáĬ£ áī£","ĠáĬ£ áīł","ĠáĬ£ áĪī","ĠáĬ£ áĭļ","ĠáĬ£ áīĲ","ĠáĬ£ áī³áĭĬ","ĠáĬ£ áĭ¶","ĠáĬ£ áīµáĪĴ","ĠáĬ£ áĪ¸","áĪį áī¥","áĪį áĪį","áĪį áĪķ","áĪį áįį","áĪį áĪī","áĪį áĭ°","áĪį áĮ¥","áĪį áĬĲáīµ","áĪį áįī","áĪį áĬł","áĪį áĪ³áĭŃ","áĭŃ áĭ«","áĭŃ áīķ","áĭŃ áįĪ","áĭŃ áĪĻ","áĭŃ áĭ¶","áĭŃ áĬĵáĬķ","áĭŃ áĭ¶áĪĿ","ĠáĬ¥ áī¥áĪį","ĠáĬ¥ áĮĥáĪĿ","áĬ¥ áĭĽ","áĬ¥ áĪĻ","ĠáĭĿ áĬķ","ĠáĭĿ áĭ°","ĠáĭĿ áĭĽ","ĠáĭĿ áĭµáĪį","ĠáĭĿ áĮĪáī¥","ĠáĭĿ áĮ¥áīĢ","ĠáĭĿ áĪŃáĬł","ĠáĭĿ áĭ°áĪŃ","ĠáĭĿ áįįáĪĪáĮ¥","ĠáĭĿ áĭĿáĪŃáĮĭáĪķ","ĠáĭĿ áĬķáĭįáĪĵ","áī° áĬ¸","áī° áĭĽ","áī° áĪŀ","áī° áĭŃáĬķ","áī° áĪĺáĪŃ","áī° áĭĭáĪħ","áī£ áĭ«áīµ","áī£ áĪįáĬķ","ĠáĪĺ áĬ£","ĠáĪĺ áĪĵ","ĠáĪĺ áīķ","ĠáĪĺ áĭļ","ĠáĪĺ áīĲ","ĠáĪĺ áĪŃáīµ","ĠáĪĺ áĪŃáĪĵ","ĠáĪĺ áĪŃáĬ£","ĠáĪĺ áĪįáĬŃáĭķ","ĠáĪĺ áĭĺáĬĵ","áī³ áĭŃ","áī³ áī²","áī³ áįĮ","áī³ áī°áĬ¸","áĪĪ áĪĽ","áĪĪ áĭį","áĪĪ áī³áĭĬ","áĪĪ áĪµáī°","áĪĪ áĬ»áĬ½áī³","áĬĲ áĬķ","áĬĲ áī³","áĬĲ áī²","áĬĲ áīķ","áĬĲ áī³áī¶áĪĿ","áĬĲ áįįáĪ²áĭĪáĬ¨áįį","áĬĲ áĪ«áĪį","áĪµ áĪµ","áĪµ áĭµ","áĪµ áĪŃáĪĵ","áĪ° áĪĿ","áĪ° áĪµ","áĪ° áĪĽ","áĪ° áĪī","áĪ° áĬŃ","áĪ° áĬĲáīµ","áĪ° áĮĭáĮĪ","áĪ° áĬ©áĪĿ","ĠáĬ¥áĭ Ī","ĠáĬ¥áĭ ĭ","ĠáĬ¥áĭ Ŀ","ĠáĬ¥áĭ ĺáĬķ","áĬ£ áī°","áĬ£ áĪĪ","áĬ£ áĭµ","áĬ£ áįį","áĬ£ áĭ³","áĬ£ áī¶áĪĿ","áĬ£ áīłáĪŃáĬŃáī¶","áĬ£ áĬŃáĪį","áĬ£ áĮĪáĪįáĮįáĪİ","áĬ£ áĭ«áī³áīµ","áĬ£ áĭ³áĪĪ","áĬ£ áīĥáĭį","Ġáī¥ áī","Ġáī¥ áĬ¥","Ġáī¥ áĪµ","Ġáī¥ áĮ¥","Ġáī¥ áĮ»","Ġáī¥ áĬ¸","Ġáī¥ áĪ½","Ġáī¥ áīĽ","Ġáī¥ áĪµáĬĲ","Ġáī¥ áĬ¨áĪĭ","Ġáī¥ áĪµáĪĪ","Ġáī¥ áĪįáĬŃáĭķ","Ġáī¥ áĭĪáĪĪ","Ġáī¥ áĪŀáĭ«","Ġáī¥ áĭĵáīķ","Ġáī¥ áī¥áĭĿáĪĴ","Ġáī¥ áĬķáĭįáĪĵ","Ġáī¥ áĬ¹áĪĪáĬķáīµáĬĵáĬ¡","áīł áĪĪ","áīł áĬĲ","áīł áĪ«","áīł áĬĵ","áīł áĪª","áīł áĭĵáĪį","áīł áĭĿáĪĳ","áīł áĪįáĬ©","áīł áī³áī°áĬ¸","áĪ« áĪŃ","áĪ« áĭį","áĪ« áĬ½","áĪ« áĮº","áĪ« áĬķáĬķ","áĪķ áĪµ","áĪķ áīĢ","áĪķ áĭ«áĪį","áĪķ áĮįáĮĭ","áĪķ áĪŃáĪ»","áĪķ áĪĪáĪį","áĮĪ áĪĪ","áĮĪ áĪµ","áĮĪ áĬĵ","áĮĪ áīłáĪŃ","áĮĪ áĪ²","áī² áĬķ","áĬĵ áĪħ","áĬĵ áĮĢ","ĠáĪĿ áĬŃáĪį","ĠáĪĿ áĬ¹áĪµáĬ³áĪµ","ĠáĪĿ áī£áĪįáĬķ","áĭ« áī±","áĪĭ áĮ½","áĪĭ áĪĬ","áĪĭ áĭª","áĪĭ áĭİáĪĿ","áĪĭ áĪµáįĭ","áĪĭ áĮ¥áĬķ","ĠáĬķ áĭĪ","ĠáĬķ áĭĵ","ĠáĬķ áĬ½áĬ¥áĪį","ĠáĬķ áĪĵáĭ°","ĠáĬķ áĭĵáĭŃ","ĠáĬķ áĪĽáĪķáīłáĪ«áĭĬ","ĠáĬķ áĪ½áīķáĪĪáīµ","ĠáĬķ áĪĽáĪķáīłáĪ¨","áĪ¨ áīł","áĪ¨ áĪĵ","áĪ¨ áī¡","áĪ¨ áĬ¸","áĪ¨ áĮįáĮ½","áĪ¨ áĬŃáī°áĪŃ","áĮį áī¥","áĮį áĭĿ","áĮį áĭĳ","áĮį áįİ","áĮį áī¡áĬ¥","áĮį áĬ£áīµ","áĭµ áĪĺ","áĭµ áĪĲ","áĭµ áĪķáĬķ","áĭµ áĪ©áīµ","ĠáĬ£áī¥ áī³","ĠáĬ£áī¥ áī²","ĠáĬ£áī¥ áĪª","ĠáĬ£áī¥ áĬĲáī³áĭĬ","áĪĺ áĪįáĬŃ","áĪĺ áĭŃáī²","áĪĺ áĮ»áĪķáįįáī²","áĪĺ áĪ°áĪ¨áīµ","áĪĺ áī¥áĭĽ","áĭĬ áīµ","ĠáĬŃ áĪķ","ĠáĬŃ áīķ","ĠáĬŃ áįĭ","ĠáĬŃ áĮİ","ĠáĬŃ áī¥áĪī","ĠáĬŃ áĮŃ","ĠáĬŃ áĮįáĪĪáĮ½","ĠáĬŃ áĪ³áī°áįī","ĠáĬŃ áī°áĬ£áī³","ĠáĬŃ áĬ¥áĪĪáīµ","ĠáĬŃ áī¡áĪŃ","ĠáĬŃ áĪŃáĬ¨áī¡","ĠáĬŃ áĭµáĭŃ","ĠáĬŃ áĭĵáī¥áĬķ","ĠáĬŃ áĪŃáĭµáĬ¦","áĪĽ áĪŃ","áĭķ áĪĿ","áĭķ áĪĪ","áĭķ áĪĭáĪĽ","áįį áī³","áįį áĪ¨","áįį áĪī","áįį áĬ¢","áĮ½ áĪį","áĮ½ áīł","áĮ½ áĪįáĭĭ","Ġáĭĺ áĬ«","Ġáĭĺ áĭĺ","Ġáĭĺ áĬ½áĬ¥","Ġáĭĺ áĭµáĪį","Ġáĭĺ áĪĺáĬķ","Ġáĭĺ áĪ¨áĮĭ","Ġáĭĺ áĬķáīĢ","Ġáĭĺ áĬ½áĬ¥áĪī","Ġáĭĺ áĪµáī°","Ġáĭĺ áĭµáĬķ","Ġáĭĺ áĪ³áīµ","Ġáĭĺ áĭįáĪķ","Ġáĭĺ áĪĽáĪįáĬ¥","Ġáĭĺ áĬķáĮ¸áī£áĪŃáīķ","áĪħ áīµáĬķ","áĪħ áĮ»","áĪħ áĪ³","áĪħ áĪĭáĭĪ","áĪħ áĪµáĪµ","ĠáĬ¨ áĭ³","ĠáĬ¨ áī¢","ĠáĬ¨ áī£áī¥","ĠáĬ¨ áī¥áĪŃ","ĠáĬ¨ áįĭ","ĠáĬ¨ áįĬ","ĠáĬ¨ áĭįáĭķ","ĠáĬ¨ áĪŃáĬ¥áĭ©","áī³áīµ áĬĵáĬķ","áĭį áī²","áĭį áĮ½áĬ¢","áĭĿ áĪķ","áĭĿ áĪĽ","áĭĿ áīłáĭĿáĪĳ","áĪī áĪķ","áĪī áĮ¥","áĪĵ áĭĿ","áĪĵ áī¶áĪĿ","áĪĵ áī£áĪ«áĭĬ","áĪĵ áĪĭáĪį","ĠáĮ ¨","ĠáĮ ĵ","ĠáĮ ħáĮįáĬķ","áĬ½ áī±","áĬ½ áī¥áĪ®","áĪª áĮ¾","áĪª áĮįáĬĵ","áĪİ áī£áĪį","áĭ° áĪµ","áĭ° áĪ°","áĭ° áĭ°","áĭ° áī¥áī²","Ġáī° áĬ¸","Ġáī° áĪįáĬ¥","Ġáī° áĮĪáĭ²","Ġáī° áīĸ","Ġáī° áĮĮ","Ġáī° áĬķáīĢáĪ³áīĵáĪ²","áĭ³ áī¥","áĭ³ áĭŃ","áĭ³ áīµáĬķ","áĭ³ áĮĢ","áĭ³ áĭ°áĪŃ","áĭ³ áĪŀáīµ","áĭ³ áĬ£áĬ«","áīµáĬķ áīµ","áĬ« áĪĭ","áĬ« áĪįáĬ¦áīµ","áĬ« áĬ¤áĪį","ĠáĬĵ áīķ","ĠáĪµ áĬ¢","ĠáĪµ áĭĴ","ĠáĪµ áĮįáĬ£áīµ","áīķ áĭĲ","áĭĪ áĬķ","áĭĪ áī³","áĭĪ áĪī","áĭĪ áĭĺáī°","áĭĪ áĪĲáīµ","áĭĵ áī³áīµ","áĭĵ áĪļ","áĬ¨ áĭįáĬķ","áĬŃ áĪ®","áĬŃ áĭĴ","áĬŃ áĬķáĭ²","áĬŃ áĪ³áī¥","áĬŃ áĬĴáĬ«áĭĬ","áĬŃ áĬķáĭ°áĭŃ","Ġáĭĵ áĭŃ","Ġáĭĵ áĭŃáĬĳ","Ġáĭĵ áĭĪáīµ","Ġáĭĵ áĪ»","Ġáĭĵ áĬķáīĢ","Ġáĭĵ áĪŃáĬª","Ġáĭĵ áīĲáĬķ","ĠáĪĥ áĬķ","ĠáĪĥ áĪį","ĠáĪĥ áĬķáīĢ","ĠáĪĥ áī¥áī²","áĮ¥ áĪŃ","áĮ¥ áĭķáĪĿ","ĠáĪĵ áĪĿ","ĠáĪĵ áĭµ","ĠáĪĵ áĮºáĪŃ","ĠáĪĵ áī¢áĪ©","Ġáĭµ áĭ©","Ġáĭµ áĪµáĬ«","Ġáĭµ áĪ©áīµ","Ġáĭµ áĬ³áĬķ","Ġáĭµ áĪŃáĬº","Ġáĭµ áįįáĬ¢","Ġáīµ áĮ½áī¢","Ġáīµ áĮįáĪŃ","áĪĬ áĪķ","áĪĬ áĪ²","áĪĬ áįī","áĪĬ áĪ¶áĪĿ","áĮ» áĪŃ","áĮ» áĪļ","áĮ» áĭĪáīµ","ĠáĬ¨áĪĿ áĭĺ","ĠáĬ¨áĪĿ áĬ¥áīµ","áįĪ áī³áīµ","áįĪ áĪŃáī²","áįĪ áĪīáĬķ","áĪĥ áĪħ","áĪĥ áĪ«áĭŃ","áĪĥ áĪĤ","áĮĭ áĪµ","áĮĭ áĪª","áĭ¨ áĬĵ","áĭ¨ áĪĪáĬķ","áĪ³ áĪĭ","áĪ³ áĪ²","áĪ³ áĪįáĪ³áĭŃ","Ġáĭķ áĭ±","Ġáĭķ áĪĪáī³áĭĬ","áĪ® áĪĿáĬķ","áĪ® áĮĢ","áĪ® áĬĴáĬ«áĭĬ","áĪ® áĮ³","ĠáĬ« áĪŃ","ĠáĭŃ áĪŃáĬ£","ĠáĭŃ áĬ½áĬ¥áĪī","áĭļ áĬ¡","ĠáĪĥáĮĪ áĪ®áĪĿ","ĠáĪĥáĮĪ áĪ«áīµáĬķ","áī¢ áĪī","ĠáĭĿáī° áĮ»áĪķ","ĠáĭĿáī° áĪ°áĪŃ","ĠáĭĿáī° áĪĽáĪħ","ĠáĭĿáī° áīłáĮĪ","Ġáī¥áĪĿ áĪĿ","Ġáī¥áĪĿ áĪŃ","Ġáī¥áĪĿ áĬ½","Ġáī¥áĪĿ áĮī","Ġáī¥áĪĿ áĪįáĬŃ","Ġáī¥áĪĿ áĬķáĮ»","Ġáī¥áĪĿ áĭµáĪĭáĭį","Ġáī¥áĪĿ áīķáĪ«áī¥","áī± áī¥","áī± áĭķ","áĪ© áĭķ","áĭĺ áī¥","áĭĺ áĪŃ","áĭĺ áī¡","ĠáĬĲ áĭ¨","ĠáĬĲ áĮº","ĠáĬĲ áĮ¥áīł","ĠáĬĲ áĭŃáĪ®áĪĿ","ĠáĬĲ áįįáĪ²áĭĪáĬ¨áįį","ĠáĬĲ áĮĪáĪ«áīµ","ĠáĬĲ áĬĵáī±","ĠáĬķáĪĿ áĭµ","ĠáĬķáĪĿ áĭį","ĠáĬķáĪĿ áĭķáī£","ĠáĬķáĪĿ áīħ","ĠáĬķáĪĿ áĪµáįĭ","ĠáĬķáĪĿ áĪµáįį","ĠáĬķáĪĿ áĪĿáĪµáĪ«áīµ","ĠáĬķáĪĿ áĭµáĪĭáĭį","ĠáĬķáĪĿ áĬ¹áĪµáĬ³áĪµ","ĠáĪĽ áĭįáĬķ","ĠáĪĽ áĬĵáĮĢ","áĭ² áĪ©","áĪ«áĭĬ áīµ","ĠáĭĪ áĪ¨","ĠáĭĪ áĪ°áĬķ","áī¡ áĬķ","áī¡ áĬ£áīµ","ĠáĪķ áĪįáĪĿ","ĠáĪķ áĪĽáīķ","ĠáĪķ áĭ³áĪŃ","ĠáĪķ áĪĿáī¥áĪŃ","áĬ¡ áĪĭáĭį","ĠáĬ«áī¥ áī²","áĭĭ áĪĿ","áĭĭ áĪ³áīµ","áĭĭ áī¶áĪĿáĬķ","áĮ¸ áĮĪ","ĠáĪĺáĬķáĬ¥áĪ°áĭŃ áĬķ","ĠáīĢ áĪĬ","ĠáīĢ áĮ¸","ĠáīĢ áĪ¨áī¥","ĠáīĢ áĪ¨áī£","ĠáīĢ áĪįáīĢáĪį","áĭĽ áĭĬ","áĭĽ áīµáĬķ","áĭĽ áĪ¨áī¥","áĭĽ áĪĺáĭµ","Ġáīħ áĭ±","Ġáīħ áĪįáĮ¡","Ġáīħ áĭĭáĪĿ","áĬĴ áĪķáĬķ","áĬ¢ áĪĭ","áĬ¢ áĪīáĬĴ","áĬ¢ áĬķáĭ±áĪµáīµáĪª","áĭĳ áĪĿ","Ġáĭį áĪģ","áĪļ áī´","áĪļ áĭµáĬ«","ĠáĪħ áĬķáĮ¸","ĠáĪħ áĪŃáĬ©","ĠáĪħ áĪīáĭį","ĠáĪħ áĭĭáĪ³áīµ","ĠáĮ¸ áĪªáĮįáĬĵ","áĭ± áĪįáĬķ","ĠáĪį áī¥","ĠáĪį áĪĻ","ĠáĪį áĮĥáĪĿ","ĠáĪį áĬ¡áĪĭáĭį","Ġáįį áī³áĪķ","Ġáįį áĪīáĮ¥","ĠáĮį áĪĿ","ĠáĮį áĭµ","ĠáĮį áĪİáī£áĪį","ĠáĮį áī¡áĬ£áīµ","ĠáĭĺáĭŃ áĬ¥","ĠáĭĺáĭŃ áĪħáī¥","ĠáĭĺáĭŃ áī¥áĪİáĪĿ","ĠáĭĺáĭŃ áĪķáĪĪáĪį","áĬ» áīµ","áĬ» áĪĿ","áĬ» áĪª","ĠáĪ° áĬķ","ĠáĪ° áīł","ĠáĪ° áĪĻ","ĠáĪ° áī£áīµ","ĠáĪ° áĪĭáĪĽ","ĠáĪ° áĬĵáĭŃ","ĠáĪ° áĮĬ","ĠáĪ° áĭŃáįĪ","ĠáĪ° áĭĵáī³áīµ","ĠáĪ° áĪ«áĭĬáīµ","Ġáĭ° áĪŃ","Ġáĭ° áĬ£","Ġáĭ° áĪŀáĭĿ","ĠáĪĿáĪµ áĬ£áĪį","ĠáĬ£áĪİ áĬķ","ĠáĬ£áĪİ áĬĵ","ĠáĬ£áĪİ áĬĴ","áĭįáĬķ áĬķ","áīĢ áĪĭ","áīĢ áĬĽ","áīĢ áĪ¨áī¥","áīĢ áĪĿáī²","áīĢ áĭ³áĪŀáīµ","ĠáĪµáĪ«áĪķ áĬķ","ĠáĮ½ áĭĴ","ĠáĮ½ áī¡áīķ","ĠáĬ® áĪĿ","ĠáĬ® áĪļáī´","ĠáĬ¥áĬķ áīĭ","ĠáĬ¥áĬķ áĪĵáįį","ĠáĬ¥áĬķ áĮİáĬĵáĮ¸","áĭķáī£ áīµ","ĠáĮĪ áĮ½","Ġáīł áĭļ","Ġáīł áīĴ","Ġáīł áĪĭáĪķ","Ġáīł áĪĬáĪķ","áĬ© áĪİáĪĿ","áĬ© áĬĲáī³áīµ","áĬ© áĪįáĬĵ","ĠáĬ¤ áĭ°áĬķ","ĠáĬ¤ áĬŃáĪµ","ĠáĭĺáĪĪ áĭĭáĬķ","áī¥áĪŃ áĪĥáĬķ","ĠáĬ£áįį áĪŃáĭ©","áĮĪáĪį áĮ¾","Ġáīħáī¥áĬ£ áĬķ","áįĭ áĪķ","áįĭ áīµáĬķ","áįĭ áĪĬ","ĠáĬ© áĬĲáīµ","ĠáĬ© áĪĪáĬķ","ĠáĬ© áī£áĬķáĭ«","Ġáī£áĪħ áĮįáĬĵ","ĠáĬ£áĭŃ áĬĲáīłáĪ¨","ĠáĬ¥áĬĵ áĪĺ","ĠáĬ¥áĬĵ áĭĪ","ĠáĬ¥áĬĵ áĪĥ","ĠáĬ¥áĬĵ áĬ¾áĬĲ","ĠáĬ¥áĬĵ áĬ«áĭ¨","ĠáĮ¥ áĭķáĬĵ","ĠáĮ¥ áĭķáĬĵáĬķ","ĠáĭĿáĬĲ áīłáĪŃ","ĠáĭĿáĬĲ áĭĪáĪĲáīµ","ĠáĬ¥áĪĿ áĬĲ","ĠáĬ¥áĪĿ áī£áīµ","ĠáĭĺáĪİ áĬķ","ĠáīģáĮłáī£ áĬķ","ĠáīģáĮłáī£ áĬĵ","ĠáĭĵáĪĪ áĪĿáĬķ","áĬ® áĭŃáĬĳ","ĠáĬ£áįįáĪªáīĥ áĬķ","ĠáĬ£áįįáĪªáīĥ áĭĬ","ĠáĬķáī£áī¥ áĬķ","áĮī áĪŃáī²","ĠáĪĺáĪ°áĪ¨ áī³áĭįáĭ«áĬķ","ĠáĬ£áĪĪ áĭį","áįĬ áĪī","áįĬ áĪ©","áĭ¶ áĪĿáĬķ","ĠáĪŃ áĬ½","ĠáĪŃ áĪĳáīķ","ĠáĪŃ áĪķáīĢ","Ġáī¥áĭĿ áĭ«áĭ³","Ġáī¥áĭĿ áĮĪáīłáĪŃ","Ġáī¥áĭĿ áĮ¥áĭķáĪĿ","ĠáĪ¨ áĬº","áĮ»áĪķ áī²","áīħ áĭķ","áīħ áĭµáĪļ","áĪŃáĪķ áĬķ","áĪŃáĪķ áĬ¡","áĮĥ áī³áīµ","ĠáĪĪ áĭŃ","ĠáĭĿáīł áĮ½áĪķ","ĠáĭĿáīł áĭĿáĪĳ","ĠáĭĿáīł áĭĿáĪķ","ĠáĭĿáīł áīķáĭĲ","ĠáĭĺáĪĪáĭİ áĪĿáĬķ","áī£áĪħ áĮİáĪĿ","áĭµáĪį áĭİ","áĭµáĪį áĭ®","áĭµáĪį áĭ±áĪį","ĠáīµáĬ« áĪĭáīµáĬķ","áĬª áī±","áĮ£ áĭĬ","áĪĿáĪµ áįĭáĪķ","ĠáįĪ áī°","ĠáįĪ áĮº","ĠáįĪ áĮ¢","ĠáįĪ áĬķáĮ¢","ĠáįĪ áĪĭáĪµáįĭ","ĠáįĪ áĮ»áĪļ","ĠáĬ£áĬķ áīłáī¥","ĠáĬ£áĬķ áī£áī¢","ĠáĪħáĭĿ áī£áĭĬ","ĠáĬ¥áĬķáī° áĮ¸áĬķáĪĲ","Ġ1 8","áĪŃáĮį áī²","áĬ¥áĪĿ áĬĲáīµ","ĠáĭĿáĪĺ áĪįáĬł","ĠáĭĿáĪĵ áīłáĪ¨","ĠáĭĿáĪĵ áĪįáįī","Ġáī¥áĭĻ áĪĵáĬķ","ĠáĪĿáĪħ áĭŀ","ĠáĪķáī¥áĪ¨áī°áĪ°áī¥ áĬķ","ĠáĪ½ áĮį","ĠáĬ£áĬ« áĭŃáĭ¶áĪĿ","áĪįáī¦ áĬķ","áĪĵáĭ° áĪŃáī²","áĬ¨áĪĿ áī²","áĬ¨áĪĿ áĬ¡","áĪĥáĪį áĭ©","Ġ2 5","ĠáĪļ áĬ«áĬ¤áĪį","Ġáĭ¨ áĪĺáĪįáĬŃ","Ġáĭ¨ áĪįáī¦áĬķ","Ġáī£áĪħáĪŃ áĬķ","Ġáī£áĪħáĪŃ áĭŃ","Ġáī£áĪħáĪŃ áĭ«áī±","Ġáī³ áĪŃáĮĮ","Ġáī³ áĭ°áĪ°","áĪ¶ áĪŃáĪµ","áĬł áĬķáĬķ","ĠáĬ¢ áĪįáĬ«","ĠáĪĺáĬķ áĮ¸","ĠáĪĺáĪµ áĪĺáĪŃ","Ġáī¥áīĲ áĬķáĭ±","Ġáī¥áīĲ áĪĬáĪį","áĭ³áĬ¥ áĬķ","ĠáĪŀ áĭ«áī³áīµ","ĠáĪŀ áĬķáĮİ","áī¥áĪī áĬķ","ĠáĪĿáĭķáī£áĪĪ áĬ¡áĬķ","ĠáĪĿáīµ áĭķáĪŃ","ĠáĪĿáīµ áĪķáĮįáĮĭ","ĠáĪĿáĪĿ áĪĥáĭĿ","ĠáĬŃáīµ áįį","ĠáĬŃáĪħ áī¥","ĠáĬŃáĪħ áĪī","ĠáĮī áĭµáĮĵáĭµ","ĠáĭĿáĪĿ áĬĲ","ĠáĭĿáĪĿ áĪŃáĬ°","ĠáĭĿáĭĪ áĪ°","ĠáĭĿáĭĪ áĮ¸","ĠáĭĿáĭĪ áĪĥáī¥","ĠáĭĿáĭĪ áĭ°áī¡","ĠáĭĿáĭĪ áĪµáĭµ","áī£áĭķ áĪī","ĠáĬŃáįį áĮ½áĪĿ","ĠáĬŃáįį áĮłáĪŃ","ĠáĬŃáĬ¢ áĪİáĪĿ","ĠáīµáĪķ áī°","ĠáīµáĪķ áĭŀ","áĪĮ áī¶áĪĿ","ĠáĬ£áĪµ áĪĺáĪ¨áīµ","ĠáĭĿáĬ¸ áįį","ĠáĭĿáĬ¸ áĬ£áĪĪ","Ġáī°áĭĪ áĪ²","Ġáī°áĭĪ áĪįáĭ°","ĠáīĢáĮ» áĪįáĬĲáīµ","ĠáĪĤ áī¦áĪĿ","áĪŃáĬ¥ áĭŃáĭİ","ĠáĭĿáĪ° áįĪ","ĠáĭĿáĪ° áĭ°áĭ°","ĠáĪĺáĭ³ áĭ«áĭĬ","ĠáĪĺáĭ³ áĪŃáĮįáī²","áĪĽáĭķ áī¥áĪī","Ġáĭĵáīķ áĪĿ","Ġáĭĵáīķ áĪŀáĪĿ","ĠáīĢáĭ³ áĪĿáĬĲáīµ","ĠáīĢáĭ³ áĪĺáĭŃáī²","áĪĳáĪµ áĬķ","áĪ¬ áĬŃáī°áĪŃ","ĠáĭĿáĭµ áĬĲáīķ","ĠáĭĿáĮ¸ áĬķ","ĠáĭĿáĮ¸ áĪī","áī°áĬ£ áĪĽáĬķ","ĠáĪĿáĬķ áīķ","áĪ¨áĮĭ áĮĪ","ĠáĬŃáī¥ áĪª","Ġáī¦ áĪŃáĭµ","ĠáĮł áĬķáīħ","ĠáĮł áĬķáīĤ","ĠáĮł áī£áĭ«áīµ","ĠáĪįáĪĿ áĭĵáīµ","áĮ¡ áī¥","ĠáĬ£áĭĿ áĪĽ","ĠáĬ£áĮĪáĪįáĮįáĪİ áī³áīµ","Ġáī¥áĭĺáĭŃ áĪĿáĪħ","Ġáīģ áĪįáĭķ","áĭ°áĪ« áĪ²","ĠáĭµáĪķ áĪŃ","ĠáĮ½áĪįáĭĭ áĬķ","ĠáĪĺáĮ½áĪĵ áįī","áĪŃáĬ£ áĭŃ","ĠáĬ£áĪĺ áĪĪáĬ»áĬ½áī³","ĠáĬ£áĪĺ áĪĵáĭ°áĪŃáī²","ĠáĭĿáĪµ áĪŃáĪĵáĪī","ĠáĭĿáĪµ áĪ«áĭķ","ĠáĭĿáĪķ áī³","ĠáĪĺáĮł áĭŃáīķ","áĪµáĬĲ áī³","ĠáĬŃáĬķ áĭ°áĭŃ","ĠáĭŃáĬ¹ áĬĳ","Ġáī£áĭŃ áĬŃ","Ġáĭ°áĪ« áĪ²","Ġáĭ°áĪ« áĬº","ĠáĮ½áĪĳ áįĭáīµáĬķ","ĠáĭĿáĪĵáĪĪ áĭĪ","ĠáĭĿáĪĵáĪĪ áįī","ĠáĬĶ áĭŃáĪ©","ĠáĬĶ áĪŃáĭİáĪĿ","ĠáĪĴ áĭŀáĪĿ","áĪĿáīµ áĭİ","áĪĿáīµ áī¥áī£áĭķ","áĪĿáīµ áĬ¥áĪĿáĪĽáĬķ","ĠáĬ£áĬ¥áĪĿáĪ® áĬķ","ĠáĬ£áĬ¥áĪĿáĪ® áĬ¡áĬķ","ĠáĭĿáĬ£ áīµ","ĠáĭĿáĬ£ áĬŃáĪį","ĠáĭĿáĭį áĪµ","ĠáĭĿáĭį áĬŃáĪį","ĠáĭĿáĭį áĪĥáī¥","ĠáĪĺáĪ³ áĪŃáĪķ","ĠáĪĺáĪ³ áĪĪáĮ¥","áĪ°áĪŃ áĪĳ","ĠáĪĿáĭµ áĪª","ĠáĪĿáĭµ áĬ»áĪĿ","ĠáĪĿáĭµ áĮĥáī³áīµ","ĠáĬķáĭĿ áĪŃáĬ¨áī¡","áĪĺáĪµ áĪŃáĪĴ","ĠáĭĿáĬĲáīł áĪ®áĪĿ","ĠáĬ£áĮĪáĭ³ áĪµáĬĲáīµ","Ġáī¥áīķáĭĵáīµ áĬ«","Ġáĭľ áĬĵ","áĪŃáĮī áĪķ","áī³áĪķ áĭĺ","Ġáī¥áīĳ áĭĵáīµ","áīłáĭ¨ áĬĵ","Ġáīĥ áĪĪ","ĠáĮĢ áĬĲáĪ«áĪį","áĬ«áĭ¨ áĭ°","áĬ¨áĪĭ áĬ¸","áĮ¥áīĢ áĪĺ","ĠáĪĿáĭķáīĥ áī¥","Ġáī¦áī³ áĬķ","áĪľ áĬ¦áĪĿ","áĬķáĭį áĪĳáĪµáĬķ","áĪįáĬ£ áĭŃ","ĠáĭĿáĪħ áĪī","ĠáĭĿáĪħ áī¦","ĠáĭĿáĪħ áĪįáĭİ","ĠáĭĿáĭĵ áī¢","ĠáĭĿáįĪ áĪįáĮ¦","ĠáĭĿáįĪ áĪįáĮ¥","ĠáĪĺáĪĿ áĪŃáĪĴ","ĠáĪĺáĪ° áĮĭáĮĪ","Ġáī¥áĪį áĭĳáĪį","ĠáĪĿáĬŃ áīµáī³","Ġáī°áĮĪ áĭŃáĪ©","Ġáī°áĮĪ áĬķáĭļ","ĠáĪµáĪįáĮł áĬĵáī³áīµáĬķ","Ġáĭĵáĭį áĭ²","áĪ³áī° áįįáī²","ĠáĭĿáī°áĭĵ áĭĪáī±","ĠáĬ¥áĬĵáī° áĬ¸","ĠáĬ¥áĬĵáī° áī£áĪħ","ĠáĪĿáĭĥáĬķ áĬĵ","ĠáĭķáĭµáĪĺ áĬ¦áĪĿ","Ġ201 0","ĠáĮ¸áĬĴáĪĳ áĬķ","ĠáĪĺáĬĲáī£áī¥áĪ® áĬĵáĬķ","ĠáĪĵáīłáĪ¬áī³ áĬķ","ĠáĪ¸ áĪŀáĬķáī°","ĠáĪ¸ áĭįáĪĥ","ĠáĪĭ áĭķáĪĬ","ĠáĪĭ áĭķáĪĪ","ĠáĭĽ áĭķáī£","ĠáĬ£áī° áĬ²","ĠáĬ£áī° áĪĵáĪ³áĪµáī£","ĠáĬ£áĪ° áĪ®áĪĿ","ĠáĬ£áĪ° áĬĵáĭ³áĬ¢","ĠáĬ£áĬ¨ áī£áī¥","ĠáĬ¥áī° áĬķ","ĠáĭĿáīĲ áĪŃáī¥","Ġáī¥áĪŃ áĬ¥áĪ°","Ġáī¥áĪŃ áĪĥ","Ġáī¥áĪŃ áī±áĭķ","ĠáĪĿáĭį áĪĵáĪµ","ĠáĬķáĭĺ áĪİ","ĠáĬķáĭĺ áĪĪáĭī","ĠáĬŃáįĪáĮ¥ áĪŃ","áĭķáĭµ áĪĭáīµ","áĮ½áĪķ áįĪáīµ","ĠáĭĺáĪĺ áĪįáĬŃáīµ","ĠáĭĺáĪĺ áĭĿáĮĪ","ĠáīĨ áĭŃáĪĻ","áĪĵáĪ³ áī£","ĠáĪĿáīµáĬ¥áĪµáĪ³ áĪ«áīµáĬķ","ĠáĪħáĭŃáĭĪáīµ áĬĵáĬķ","áī´ áĬŃáĬĴáĬ«áĭĬ","áĮħ áĬķ","ĠáĪ³ áĪĭ","ĠáĪ«áĬ¥ áĭª","ĠáĪ«áĬ¥ áĭŃáĬĵ","ĠáĬ£áĪķ áī²áĪĻ","áĪįáĭį áĭĭ","áĬ¥áīµáī³ áĭį","ĠáĭĿáįĪáĮ¥ áĪ®","áī°áįĪáĪĭáĪĪ áĭ©","ĠáĪĺáĮ»áĬ¢ áĬķ","áĪµáĪį áĬª","áĪµáĪį áĮ£","Ġáī¥áĪķ áī¥áĪŃáī³áīµ","Ġáī¥áĪķ áĪįáįĬ","Ġáī¥áĭķ áĪĿáīĪ","Ġáī¥áĭķ áī±áī¥","Ġáī¥áįį áĪīáĭŃ","áĮĪáĭ³ áĪµáĬĲáīµ","ĠáĭĺáĪķ áĭµáĪ®","ĠáĬ¨áĪ¨áĮĭ áĮįáĮ¹","Ġáī°áĪŃáĬ¥ áĭ©","áĭĪáĪĪ áĭµ","ĠáĬ¨áĪĿáĭĺáĭŃ áĬ®áĬĲ","ĠáĬ¨áĪĿáĭĺáĭŃ áĬŃáĬ¥áĪį","ĠáĬķáĪĿáįį áī³áĪķ","ĠáĭĪáĪĪ áĭ²","ĠáĭįáĪ½ áĮ£áĭĬ","ĠáĪħáĮ» áĬĵáīµ","ĠáĭĺáĭŃáĪĿ áĮ¥áīĥ","ĠáĬ¥áĬķáĬ¨ áĪĪáĭī","ĠáĪµáĬĲáĮ¥áīł áīłáĬĽ","ĠáĭĿáĪĿáĭµ áĬĵ","áĭĸ áī³áīµ","ĠáĪª áĪ¶áĪŃáĪµ","ĠáĬ£áĪ¨ áĬªáī¦áĪĿ","áī£áĭ® áĮĭáĭĿ","ĠáĪĺáĪŃ áīłáī¥","ĠáĪĺáĪŃ áĪĺáĪ«","ĠáĪĺáīł áĮĪáĪ²","ĠáĪĺáĮİ áī°","ĠáĪĺáĮİ áĪ°áĬ©áĪĿ","Ġáī¥áĬ£ áī°","ĠáĪĿáīħ áĭŃáĭ«","ĠáĬķáĬ£ áĪ½áī±","ĠáĬķáĭķ áī¥áĭ¨áīµ","Ġáĭĺáĭ³ áĪĪáĭī","Ġáĭĺáīķ áĪ¨áīł","ĠáĮŃ áĪŃáĪĸ","áĭ³áĭµ áĬ£","ĠáĪµáĬ¥ áĪĬ","ĠáĪµáĬ¥ áĪįáī³áīµ","áĭĵáī¢ áĬ¡","áĭĵáī¢ áĭ±","ĠáĪĵáĭ« áĪİ","ĠáĪĵáĭ« áĪįáĬķ","ĠáĭµáĪĮ áīµ","ĠáĭµáĪĮ áīµáĬķ","ĠáĭŃáĪķ áī¥áĪ©","ĠáĭĿáī°áĪ³ áĬ¥áĪĪ","ĠáĭĿáī°áĪ³ áĬ¥áĪĪáīµ","Ġáī¥áĪĿáĭķ áĭĽáī¥","áĭĭáĪķ áĭ²","ĠáĮĪáĮł áĪ«áīµ","Ġáī£áĪħáĮĬ áĬķ","ĠáĬ¥áĬĵáĭĵ áīłáĭ¨","ĠáĪµáĬĲáĬ£áĬ¥áĪĿáĪ® áĬķ","ĠáĬ¥áĬķáī°áĭĺáĭŃ áĬ®áĭŃáĬĳ","ĠáĬŃáįįáĪĬ áīµ","Ġ200 6","áĬ¥áĬķáī° áĬ¾áĬĲ","áī°áĬ£áī³ áī°áĭĪáĪİáĪĿ","ĠáĪĺáĪ»áĪŃ áĬ½áī±","ĠáĭĿáī°áĬ»áĭ¨ áĭ±","áīĨ áĪĿ","áī¥áī£áĪŃ áĬķ","áĬķáĮĪ áĭĽáĬ¥","áīµáĪķ áĭĿáī¶","ĠáĬ£áĭµ áĪĽáĭķ","ĠáĬ£áĪĽ áĬ»áĪª","ĠáĬ£áĬ½ áĬ¢áĪīáĬĴ","ĠáĬ£áĪĥ áĭ±","ĠáĬ£áĪĥ áĭĽáĭĬ","ĠáĬ£áī¦ áī³áīµáĬĵáĬķ","ĠáĬ£áīķáĪª áī£","ĠáĭĿáī¥ áĪĥáĪį","ĠáĭĿáĮ¥ áĪŃáĬĲ","ĠáĭĿáĪ¨áĬ½áī¡ áĪī","áī£áĪħáĪŃ áĭ«áĭĬ","ĠáĪĺáĭĵáĪį áīµáĬķ","áĪµáĭ« áĭįáĭ«áĬķ","áĬ£áĭį áĪ«","áĬĵáĮ» áĬķ","ĠáĪĿáĮį áĪĭáĮ½","ĠáĬķáĭµ áįĬ","ĠáĬķáīĳ áĪĵáīµáĬķ","ĠáĬ£áī¥áĬĲáī³áĭįáĭ«áĬķ áĬķ","ĠáĬŃáĮį áīłáĪ¨","ĠáĬŃáĮį áīłáĪ¨áĪī","ĠáĬ¨áĬ« áĭŃáĭµ","Ġáīĺ áĪįáĭĳ","Ġáīĺ áĪįáĭĳáĬķ","ĠáĮĮ áĪ®áĪĿ","Ġáī°áĪ° áĬ¨áĪĿáī²","Ġáī°áĬ£ áĪ³áĪ²","Ġáī°áĭĵ áīĤ","Ġáī°áĮ» áĭĬ","ĠáĪµáĪį áĮ£","áĭĪáĪµ áĭ±","ĠáĭĵáĪļ áĪĻ","ĠáĭĵáĪļ áīļ","ĠáĭµáĪį áĭ±áĪįáĬķ","ĠáĭŃáĪ° áĪŃáĪĵáĪī","ĠáīĢáī£ áĬ¥áī²","ĠáīħáĪŃ áĮº","Ġáĭįáĭ± áĬķ","ĠáĮ½áĪŃáĮį áĭ«","ĠáĮ½áĪŃáĮį áĭ«áī³áīµ","ĠáĮĪáĪĿáĮĭ áĪĽáīµ","Ġáīłáī¥ áĭĵáĭŃáĬĲáī±","ĠáĮ¥áīł áī£áīµ","ĠáĮ¥áīł áī£áĭĬ","ĠáĮ¥áīķ áĪļ","ĠáĮ¥áīķ áĪĻáĬķ","áĮºáĪŃ áĬ«","áĮİáĪį áĮİáĪį","ĠáĬ¥áĬķáī°áĬ¾ áĭŃáĬĳ","Ġ19 6","ĠáĪĺáĬķáįĪ áĪµ","ĠáĬŃáĪħáĪį áĭİáĪĿ","ĠáĪĿáĭķáĪ« áįį","ĠáĪĿáĭķáĪ« áįī","ĠáĭĭáĪĭ áĪĵáĬķáī²","ĠáĪĺáĪ³áĪŃáĪĴ áī³áīµáĬķ","ĠáĮĢáĪļ áĪ©","ĠáĮĢáĪļ áĪ®áĪĿ","ĠáĬķáĪĿáīµáĬ¥áīµáī³ áĭį","Ġáĭĺáī°áī£áī¥ áĭķ","Ġáĭ³áĭŃ áĪ¨áĬŃáī°áĪŃ","Ġáĭ³áĭŃ áĪ¬áĬŃáī°áĪŃ","Ġáī¥áĭµáĪĨ áī³áīµ","Ġáī¥áĭµáĪĨ áī³áīµáĬķ","ĠáĪķáĮ½áĪ¨ áī³áīµ","ĠáįĸáĪĪáī²áĬ« áĭįáĬķ","ĠáīµáĬķ áīł","ĠáĪ± áĪŃ","ĠáĪİ áĪļ","áī¥áĪ« áĪħáīµáĬķ","ĠáĭĴ áī£","áįķ áĭ®áĬķ","Ġáįĭ áĭŃáĬĵáĬķ","Ġáįķ áĪ®áĮĢ","ĠáĬ£áĪ« áī¢","ĠáĬ£áīĥáĭį áĪĽáĬķ","ĠáĬ£áĪħáĮī áĪ«áĭĬ","ĠáĭĿáĬŃ áĬ£áĪį","ĠáĭĿáĮł áĪįáī¥","áī°áĬ¨ áĪĮáĭĽáĬķ","ĠáĪĺáĮĢ áĪĺáĪŃáī³","ĠáĪĺáĪĥáĭĿ áĬĲáīµáĬķ","ĠáĪĺáĮĵáĭĵáĭĿ áĭ«","áĬĲáī¥áĪ¨ áĪĭ","áĪµáĭµáĪ«áī¤ áīµ","áĪµáīĵ áĪ³áīµ","Ġáī¥áĪ°áįĬ áĪĳ","ĠáĬķáĮį áĭ³áĭĬ","ĠáĬķáĪ¸ áĪŀáĬķáī°","áĪ¨áĬŃ áī¥","áĮįáĭ° áĪ±","áĪĺáĭĵ áĬĴ","ĠáĬŃáĭķ áĭĺáī¡","ĠáĬŃáĭ³ áĪİ","ĠáĬŃáī¥áĪŃ áī³áīµáĬķ","ĠáĬŃáĭµáĪį áĭµáĪį","áĪĵáĪĭáįį áĬĲáīµ","Ġáī°áĪŀ áĬŃáĪ®","Ġáī°áĭįáĪħáī¦ áĬķ","ĠáīµáĪµáįī áĭį","áĮ»áĪĽ áĬĵ","áĪĥáĪĥ áĭ²","ĠáĭķáĬķ áĭĪáīµ","Ġáĭķáĭī áīµ","ĠáĭŃáĮ½ áīłáĭ¨áĬĵ","ĠáĭĿáī°áĭ³áĪĪ áĭĪáīµ","Ġáī¥áĪĿáĬ¥ áĬ«áī¥","Ġáī¥áĪĿáįį áĮ£áĪŃ","ĠáĬķáĪĿáĭķ áĭĭáīµ","ĠáĬķáĪĿáĮįáī£ áĪ«","ĠáĭĪáįį áĭ®áĪĿ","ĠáĪķáī¶ áī³áīµ","ĠáīħáĪįáĭį áĪĭáĭįáĬķ","ĠáįįáĪŃ áĭ«áīµ","ĠáĭĺáĭŃáīµ áĪ¨áĬ½áīłáĪī","Ġáĭ°áĪª áĪ±","Ġáĭ°áī¡ áī¥","áĬ¾áĬķ áĭİáĪĿ","áīĢáĮ» áĪįáĬĲáī±","ĠáĬ¥áĬķáĪµáĪ³ áī³áīµáĬķ","ĠáĮĪáĭ² áįį","ĠáĬ¤áĪĪáĬŃáīµ áĪ®áĬĴáĬ«áĭĬ","ĠáĬ£áĭŃáĬŃáĬ¥ áĪįáĬķ","ĠáĪŃáĬŃ áī£áīµ","ĠáĪŃáĭ± áĬ¥","ĠáĪ¨áĮĬ áĮ½áĬĵ","áī£áĪħáĪĭáĭĬ áĬķ","áĬ¤áĪŃáīµ áĪ«áĭįáĭ«áĬķ","ĠáĪļáĬĴ áĪµáīµáĪª","Ġáĭ¨áĪ¨áĮĭ áĮįáĮ½","ĠáĪĺáĪµáĭĭ áĬ¥áī²","ĠáĮīáĪįáīł áī³áĭįáĬķ","ĠáĪĺáĭµáĪ¨ áĬ»áīµ","ĠáĬ£áĪ°áĪ« áĪŃáĪķáĬ¡","Ġáī¥áīµáĮįáĪĥ áīµ","Ġáī°áĪĽáĪĥáĪ® áĬķ","ĠáĪµáĪĿáĭĴ áīµáĬķ","ĠáĭĿáī°áĬ£áī³ áī°áĭĪáĪİáĪĿ","ĠáĪĺáĬķáĮįáĪµ áīµáĬķ","Ġáī°áĮłáīĴ áĪĻ","áĬķáĪĵáĭµáĪķ áĭ±","16 6","ĠáīłáĪŃ áĪĢ","ĠáĬĸáī¨ áĪį","ĠáĪ»áĪĿ áįķáĭ®áĬķ","áĬķáĬŃáĪĪ áī£áīµ","áĪĿáĮ½ áĬ¥","áĪĿáĪ³ áĮ¥","ĠáĬ£áĪī áī³áĭĬ","ĠáĬ£áĭļ áĭ©","ĠáĬ£áīĲ áĭ²","ĠáĬ£áĭ¶ áĬĵáĭŃ","ĠáĬ£áīµáĪĴ áĭĻ","ĠáĬ£áĪ¸ áĮĭáĪª","áĬ¥áĪĻ áĬĵáīµ","ĠáĭĿáĭĽ áĭĺ","ĠáĭĿáĭ°áĪŃ áįį","áī°áĪŀ áĬ©áĪ®","ĠáĪĺáĪĵ áĪª","ĠáĪĺáīķ áĪŃ","ĠáĪĺáīĲ áĭŃáĪ®","ĠáĪĺáĪŃáīµ áĭĸáī³áīµ","áĬ£áįį áĪªáīĥ","áĬ£áĭ«áī³áīµ áĬĵáĬķ","áĬ£áĭ³áĪĪ áĭįáī²","Ġáī¥áĬ¸ áĪĺáĭŃ","Ġáī¥áīĽ áĬķáīĭ","Ġáī¥áĪµáĪĪ áīµáĬķ","Ġáī¥áĭĵáīķ áĪŀáĪĿ","áĪ«áĭį áĬĲáīµ","áĪķáĪŃáĪ» áĭĬ","ĠáĪĿáĬŃáĪį áĬ»áĪį","áĪĺáī¥áĭĽ áĪķáīµ","ĠáĬŃáįĭ áĪĭáīµ","ĠáĬŃáĮİ áĭµáĪį","ĠáĬŃáī°áĬ£áī³ áī¶","ĠáĭĺáĪ³áīµ áįį","áĪħáĮ» áĬĵáīµ","áĪħáĪ³ áĪµ","ĠáĬ¨áī¢ áĭµ","ĠáĬ¨áī¥áĪŃ áĪħ","áĬ½áī¥áĪ® áīµ","áĪªáĮ¾ áĪĿ","Ġáī°áĮĮ áĪ©","áĭ³áĮĢ áĪµáī°áĪŃ","ĠáĬĵáīķ áįĭ","ĠáĪĥáĬķáīĢ áĭį","ĠáĭµáĪŃáĬº áīµ","ĠáīµáĮįáĪŃ áĬĽ","ĠáĭŃáĪŃáĬ£ áĭ©","ĠáĭĿáī°áĮ»áĪķ áįī","ĠáĭĿáī°áĪ°áĪŃ áĪĲáīµ","Ġáī¥áĪĿáĪįáĬŃ áī³áīµ","Ġáī¥áĪĿáĬķáĮ» áįį","ĠáĬķáĪĿáĭķáī£ áĭŃ","ĠáĬķáĪĿáĪµáįį áĪĳ","ĠáĪĽáĭįáĬķ áī°áĭŃáĬķ","ĠáĪĽáĬĵáĮĢ áĪŃ","ĠáĪķáĪĿáī¥áĪŃ áī²","Ġáīħáĭ± áĪµ","ĠáīħáĪįáĮ¡ áįįáĬķ","ĠáĭįáĪģ áĭµ","ĠáĪħáĬķáĮ¸ áīµ","ĠáĪ°áĪĻ áĬĵáĭĬ","ĠáĪ°áĪĭáĪĽ áĭĬ","ĠáĪ°áĬĵáĭŃ áīµ","ĠáĪ°áĮĬ áĪ©","ĠáĬ¥áĬķáīĭ áĭķ","ĠáĬ¥áĬķáĪĵáįį áĪ°áĪīáĬķ","ĠáĬ¥áĬķáĮİáĬĵáĮ¸ áįĪáĪīáĬķ","ĠáīłáīĴ áĭķáĬĵ","ĠáīłáĪĭáĪķ áīµáĬķ","ĠáĬ¤áĬŃáĪµ áįĸ","ĠáĬ£áĭŃáĬĲáīłáĪ¨ áĬķ","ĠáĬ¥áĬĵáĬ«áĭ¨ áĭ±","ĠáĬ¥áĪĿáī£áīµ áĬ«áĪĭ","ĠáĪŃáĪķáīĢ áīµ","Ġáī¥áĭĿáĮĪáīłáĪŃ áĬĵáĭ®","ĠáįĪáĮ¢ áĪ©","ĠáĪħáĭĿáī£áĭĬ áĬķ","Ġáĭ¨áĪĺáĪįáĬŃ áī±","Ġáī³áĪŃáĮĮ áīµ","ĠáĮłáĬķáīħ áī³áīµ","Ġáī¥áĭĺáĭŃáĪĿáĪħ áĪĭáĭī","ĠáĪĺáĪ³áĪĪáĮ¥ áĭ«","ĠáĪĺáĪ°áĮĭáĮĪ áĪª","Ġáī°áĮĪáĬķáĭļ áī¡","ĠáĬ£áī°áĬ² áĪ©","ĠáĭĺáĪĺáĪįáĬŃáīµ áĭİ","Ġáī¥áĭķáĪĿáīĪ áīµ","ĠáĬ£áĪ¨áĬªáī¦áĪĿ áĬĵ","ĠáĪĿáīħáĭŃáĭ« áĪŃ","ĠáĭĿáĮ¥áĪŃáĬĲ áįī","ĠáįĭáĭŃáĬĵáĬķ áĪµáĭ«áĭįáĭ«áĬķ","ĠáįķáĪ®áĮĢ áĬŃáīµ","Ġáī°áĪŀáĬŃáĪ® áĬķ"]}}